{
  "version": "1.0",
  "truncation": null,
  "padding": null,
  "added_tokens": [
    {
      "id": 0,
      "content": "<pad>",
      "single_word": false,
      "lstrip": false,
      "rstrip": false,
      "normalized": false,
      "special": true
    },
    {
      "id": 1,
      "content": "<bos>",
      "single_word": false,
      "lstrip": false,
      "rstrip": false,
      "normalized": false,
      "special": true
    },
    {
      "id": 2,
      "content": "<eos>",
      "single_word": false,
      "lstrip": false,
      "rstrip": false,
      "normalized": false,
      "special": true
    },
    {
      "id": 3,
      "content": "<unk>",
      "single_word": false,
      "lstrip": false,
      "rstrip": false,
      "normalized": false,
      "special": true
    },
    {
      "id": 4,
      "content": "<URL>",
      "single_word": false,
      "lstrip": false,
      "rstrip": false,
      "normalized": false,
      "special": true
    },
    {
      "id": 5,
      "content": "<USER>",
      "single_word": false,
      "lstrip": false,
      "rstrip": false,
      "normalized": false,
      "special": true
    }
  ],
  "normalizer": {
    "type": "NFKC"
  },
  "pre_tokenizer": {
    "type": "ByteLevel",
    "add_prefix_space": true,
    "trim_offsets": true,
    "use_regex": true
  },
  "post_processor": null,
  "decoder": null,
  "model": {
    "type": "BPE",
    "dropout": null,
    "unk_token": "<unk>",
    "continuing_subword_prefix": null,
    "end_of_word_suffix": null,
    "fuse_unk": false,
    "byte_fallback": false,
    "ignore_merges": false,
    "vocab": {
      "<pad>": 0,
      "<bos>": 1,
      "<eos>": 2,
      "<unk>": 3,
      "<URL>": 4,
      "<USER>": 5,
      "!": 6,
      "\"": 7,
      "#": 8,
      "$": 9,
      "%": 10,
      "&": 11,
      "'": 12,
      "(": 13,
      ")": 14,
      "*": 15,
      "+": 16,
      ",": 17,
      "-": 18,
      ".": 19,
      "/": 20,
      "0": 21,
      "1": 22,
      "2": 23,
      "3": 24,
      "4": 25,
      "5": 26,
      "6": 27,
      "7": 28,
      "8": 29,
      "9": 30,
      ":": 31,
      ";": 32,
      "<": 33,
      "=": 34,
      ">": 35,
      "?": 36,
      "@": 37,
      "A": 38,
      "B": 39,
      "C": 40,
      "D": 41,
      "E": 42,
      "F": 43,
      "G": 44,
      "H": 45,
      "I": 46,
      "J": 47,
      "K": 48,
      "L": 49,
      "M": 50,
      "N": 51,
      "O": 52,
      "P": 53,
      "Q": 54,
      "R": 55,
      "S": 56,
      "T": 57,
      "U": 58,
      "V": 59,
      "W": 60,
      "X": 61,
      "Y": 62,
      "Z": 63,
      "[": 64,
      "\\": 65,
      "]": 66,
      "^": 67,
      "_": 68,
      "`": 69,
      "a": 70,
      "b": 71,
      "c": 72,
      "d": 73,
      "e": 74,
      "f": 75,
      "g": 76,
      "h": 77,
      "i": 78,
      "j": 79,
      "k": 80,
      "l": 81,
      "m": 82,
      "n": 83,
      "o": 84,
      "p": 85,
      "q": 86,
      "r": 87,
      "s": 88,
      "t": 89,
      "u": 90,
      "v": 91,
      "w": 92,
      "x": 93,
      "y": 94,
      "z": 95,
      "{": 96,
      "|": 97,
      "}": 98,
      "~": 99,
      "¡": 100,
      "¢": 101,
      "£": 102,
      "¤": 103,
      "¥": 104,
      "¦": 105,
      "§": 106,
      "¨": 107,
      "©": 108,
      "ª": 109,
      "«": 110,
      "¬": 111,
      "®": 112,
      "¯": 113,
      "°": 114,
      "±": 115,
      "²": 116,
      "³": 117,
      "´": 118,
      "¶": 119,
      "·": 120,
      "¸": 121,
      "º": 122,
      "»": 123,
      "¼": 124,
      "½": 125,
      "¾": 126,
      "¿": 127,
      "Â": 128,
      "Ã": 129,
      "Ä": 130,
      "Å": 131,
      "È": 132,
      "É": 133,
      "Ë": 134,
      "Ì": 135,
      "Í": 136,
      "Ï": 137,
      "Ô": 138,
      "Ø": 139,
      "Ù": 140,
      "à": 141,
      "á": 142,
      "â": 143,
      "ã": 144,
      "å": 145,
      "æ": 146,
      "ç": 147,
      "è": 148,
      "ï": 149,
      "Ċ": 150,
      "č": 151,
      "Đ": 152,
      "Ġ": 153,
      "Ģ": 154,
      "ģ": 155,
      "Ĥ": 156,
      "ĥ": 157,
      "Ħ": 158,
      "ħ": 159,
      "Ĩ": 160,
      "Ī": 161,
      "ī": 162,
      "Ĭ": 163,
      "Į": 164,
      "ı": 165,
      "Ĳ": 166,
      "Ĵ": 167,
      "ĵ": 168,
      "Ķ": 169,
      "ķ": 170,
      "ĸ": 171,
      "ĺ": 172,
      "Ļ": 173,
      "Ľ": 174,
      "ľ": 175,
      "Ŀ": 176,
      "ł": 177,
      "Ń": 178,
      "Ġt": 179,
      "Ġa": 180,
      "he": 181,
      "ou": 182,
      "in": 183,
      "Ġs": 184,
      "Ġw": 185,
      "re": 186,
      "on": 187,
      "ha": 188,
      "Ġy": 189,
      "Ġb": 190,
      "Ġi": 191,
      "ing": 192,
      "Ġyou": 193,
      "nd": 194,
      "Ġm": 195,
      "Ġto": 196,
      "Ġthe": 197,
      "ĠI": 198,
      "Ġf": 199,
      "ve": 200,
      "Ġd": 201,
      "Ġc": 202,
      "Ġo": 203,
      "ll": 204,
      "Ġg": 205,
      "Ġl": 206,
      "Ġp": 207,
      "it": 208,
      "hat": 209,
      "st": 210,
      "or": 211,
      "Ġand": 212,
      "hi": 213,
      "Ġhe": 214,
      "er": 215,
      "Ġbe": 216,
      "me": 217,
      "Ġn": 218,
      "at": 219,
      "an": 220,
      "ed": 221,
      "Ġe": 222,
      "Ġit": 223,
      "Ġin": 224,
      "Ġha": 225,
      "Ġthat": 226,
      "ot": 227,
      "es": 228,
      "Ġof": 229,
      "Ġre": 230,
      "le": 231,
      "Ġis": 232,
      "se": 233,
      "ar": 234,
      "čĊ": 235,
      "'t": 236,
      "ay": 237,
      "ion": 238,
      "ow": 239,
      "ly": 240,
      "en": 241,
      "ke": 242,
      "al": 243,
      "Ġso": 244,
      "Ġher": 245,
      "out": 246,
      "Ġon": 247,
      "Ġth": 248,
      "ut": 249,
      "'s": 250,
      "ith": 251,
      "ri": 252,
      "Ġwith": 253,
      "et": 254,
      "ld": 255,
      "Ġfor": 256,
      "as": 257,
      "Ġu": 258,
      "his": 259,
      "ver": 260,
      "Ġshe": 261,
      "ro": 262,
      "Ġli": 263,
      "Ġyour": 264,
      "all": 265,
      "ct": 266,
      "gh": 267,
      "Ġnot": 268,
      "Ġdo": 269,
      "ce": 270,
      "id": 271,
      "ee": 272,
      "ir": 273,
      "ould": 274,
      "ĠT": 275,
      "Ġhave": 276,
      "Ġan": 277,
      "ust": 278,
      "Ġme": 279,
      "Ġst": 280,
      "Ġh": 281,
      "ally": 282,
      "Ġsome": 283,
      "her": 284,
      "Ġas": 285,
      "ation": 286,
      "Ġj": 287,
      "..": 288,
      "ant": 289,
      "Ġgo": 290,
      "Ġbut": 291,
      "Ġab": 292,
      "Ġare": 293,
      "end": 294,
      "ch": 295,
      "Ġthis": 296,
      "nt": 297,
      "Ġk": 298,
      "ic": 299,
      "th": 300,
      "ad": 301,
      "Ġif": 302,
      "ill": 303,
      "one": 304,
      "Ġmo": 305,
      "Ġwe": 306,
      "Ġjust": 307,
      "Ġlike": 308,
      "Ġne": 309,
      "Ġmy": 310,
      "ĠS": 311,
      "Ġco": 312,
      "ght": 313,
      "Ġwas": 314,
      "Ġabout": 315,
      "Ġout": 316,
      "Ġhi": 317,
      "Ġor": 318,
      "Ġcan": 319,
      "riend": 320,
      "ck": 321,
      "ĠY": 322,
      "ĠA": 323,
      "Ġget": 324,
      "Ġat": 325,
      "Ġdon": 326,
      "Ġwant": 327,
      "op": 328,
      "ink": 329,
      "Ġup": 330,
      "ime": 331,
      "Ġwhat": 332,
      "ra": 333,
      "is": 334,
      "Ġhim": 335,
      "ho": 336,
      "Ġ\"": 337,
      "Ġlo": 338,
      "ations": 339,
      "hip": 340,
      "mp": 341,
      "Ġcon": 342,
      "lf": 343,
      "Ġkn": 344,
      "Ġrel": 345,
      "Ġma": 346,
      "pp": 347,
      "'re": 348,
      "ĠYou": 349,
      "Ġthink": 350,
      "ter": 351,
      "Ġwhe": 352,
      "Ġex": 353,
      "Ġsu": 354,
      "Ġse": 355,
      "Ġsh": 356,
      "ĠW": 357,
      "fe": 358,
      "Ġwould": 359,
      "ive": 360,
      "han": 361,
      "ge": 362,
      "Ġknow": 363,
      "ationship": 364,
      "au": 365,
      "ess": 366,
      "Ġwor": 367,
      "Ġthing": 368,
      "thing": 369,
      "Ġrelationship": 370,
      "Ġ(": 371,
      "Ġal": 372,
      "od": 373,
      "ble": 374,
      "Ġtime": 375,
      "'m": 376,
      "ate": 377,
      "ind": 378,
      "Ġpro": 379,
      "ry": 380,
      "ĠIf": 381,
      "Ġwill": 382,
      "art": 383,
      "Ġany": 384,
      "Ġde": 385,
      "ther": 386,
      "eel": 387,
      "Ġgu": 388,
      "king": 389,
      "ĠIt": 390,
      "Ġfeel": 391,
      "Ġgir": 392,
      "Ġint": 393,
      "Ġall": 394,
      "Ġfriend": 395,
      "ur": 396,
      "ĠThe": 397,
      "very": 398,
      "ĠH": 399,
      "ent": 400,
      "Ġbec": 401,
      "ers": 402,
      "Ġthey": 403,
      "ĠB": 404,
      "Ġwho": 405,
      "ause": 406,
      "Ġsee": 407,
      "Ġother": 408,
      "ea": 409,
      "Ġpo": 410,
      "Ġmore": 411,
      "Ġreally": 412,
      "ound": 413,
      "rom": 414,
      "Ġsay": 415,
      "ome": 416,
      "ell": 417,
      "Ġwhen": 418,
      "Ġsa": 419,
      "...": 420,
      "ough": 421,
      "Ġdoes": 422,
      "il": 423,
      "ong": 424,
      "eop": 425,
      "ight": 426,
      "eople": 427,
      "Ġone": 428,
      "us": 429,
      "Ġthere": 430,
      "Ġbecause": 431,
      "Ġguy": 432,
      "ul": 433,
      "Ġgirl": 434,
      "pe": 435,
      "ort": 436,
      "vi": 437,
      "ear": 438,
      "ain": 439,
      "ous": 440,
      "Ġpeople": 441,
      "self": 442,
      "Ġhow": 443,
      "Ġ*": 444,
      "Ġthem": 445,
      "Ġneed": 446,
      "un": 447,
      "Ġway": 448,
      "ĠM": 449,
      "Ġthen": 450,
      "ĠD": 451,
      "Ġfrom": 452,
      "ss": 453,
      "Ġdid": 454,
      "Ġmake": 455,
      "Ġfa": 456,
      "'ve": 457,
      "Ġgoing": 458,
      "Ġdi": 459,
      "ue": 460,
      "Ġsex": 461,
      "ol": 462,
      "Ġshould": 463,
      "Ġthings": 464,
      "Ġno": 465,
      "ore": 466,
      "ure": 467,
      "om": 468,
      "ĠO": 469,
      "Ġhas": 470,
      "Ġthan": 471,
      "ving": 472,
      "ven": 473,
      "Ġhad": 474,
      "Ġta": 475,
      "Ġbeing": 476,
      "Ġsomething": 477,
      "way": 478,
      "Ġsomeone": 479,
      "and": 480,
      "Ġhis": 481,
      "ting": 482,
      "Ġfriends": 483,
      "Ġpers": 484,
      "Ġag": 485,
      "ack": 486,
      "'ll": 487,
      "Ġgood": 488,
      "are": 489,
      "Ġpre": 490,
      "ig": 491,
      "Ġri": 492,
      "ci": 493,
      "ab": 494,
      "Ġhapp": 495,
      "ep": 496,
      "hy": 497,
      "Ġmu": 498,
      "Ġlove": 499,
      "ok": 500,
      "Ġad": 501,
      "Ġtry": 502,
      "Ġ-": 503,
      "ĠN": 504,
      "Ġperson": 505,
      "Ġtal": 506,
      "Ġmuch": 507,
      "Ġ&": 508,
      "Ġover": 509,
      "Ġdoesn": 510,
      "ĠShe": 511,
      "Ġcom": 512,
      "Ġact": 513,
      "ity": 514,
      "gt": 515,
      "Ġbeen": 516,
      "Ġwhi": 517,
      "ment": 518,
      "ually": 519,
      "Ġwork": 520,
      "Ġmay": 521,
      "ating": 522,
      "Ġtell": 523,
      "our": 524,
      "Ġoff": 525,
      "Ġen": 526,
      "Ġbet": 527,
      "uck": 528,
      "eri": 529,
      "Ġcould": 530,
      "ere": 531,
      "Ġr": 532,
      "Ġeven": 533,
      "Ġlife": 534,
      "Ġun": 535,
      "Ġaf": 536,
      "oy": 537,
      "Ġpl": 538,
      "Ġman": 539,
      "Ġnow": 540,
      "so": 541,
      "Ġonly": 542,
      "Ġtoo": 543,
      "Ġby": 544,
      "Ġevery": 545,
      "ĠG": 546,
      "rea": 547,
      "be": 548,
      "Ġpart": 549,
      "Ġyear": 550,
      "Ġsp": 551,
      "Ġwere": 552,
      "ine": 553,
      "Ġam": 554,
      "Ġus": 555,
      "Ġright": 556,
      "Ġtr": 557,
      "Ġinto": 558,
      "ard": 559,
      "'d": 560,
      "ast": 561,
      "Ġback": 562,
      "Ġar": 563,
      "Ġfind": 564,
      "ĠF": 565,
      "Ġfe": 566,
      "li": 567,
      "int": 568,
      "able": 569,
      "ite": 570,
      "Ġyourself": 571,
      "ose": 572,
      "ud": 573,
      "ably": 574,
      "Ġvery": 575,
      "ĠE": 576,
      "ĠBut": 577,
      "ms": 578,
      "get": 579,
      "Ġnever": 580,
      "Ġlong": 581,
      "Ġcomp": 582,
      "qu": 583,
      "Ġexp": 584,
      "Ġatt": 585,
      "ty": 586,
      "Ġlot": 587,
      "Ġmean": 588,
      "irst": 589,
      "Ġlea": 590,
      "ĠP": 591,
      "Ġstill": 592,
      "Ġtalk": 593,
      "Ġchan": 594,
      "Ġcl": 595,
      "Ġsit": 596,
      "Ġbot": 597,
      "Ġcont": 598,
      "ist": 599,
      "lp": 600,
      "bably": 601,
      "Ġres": 602,
      "pect": 603,
      "age": 604,
      "ĠThat": 605,
      "reat": 606,
      "kes": 607,
      "ff": 608,
      "ĠC": 609,
      "Ġask": 610,
      "Ġgive": 611,
      "Ġmight": 612,
      "own": 613,
      "act": 614,
      "ag": 615,
      "Ġhelp": 616,
      "ions": 617,
      "ĠL": 618,
      "Ġtheir": 619,
      "um": 620,
      "erest": 621,
      "pt": 622,
      "fore": 623,
      "ĠHe": 624,
      "Ġprobably": 625,
      "iz": 626,
      "Ġtake": 627,
      "Ġv": 628,
      "Ġbetter": 629,
      "Ġfirst": 630,
      "ice": 631,
      "ĠThis": 632,
      "Ġstart": 633,
      "Ġsaid": 634,
      "Ġlet": 635,
      "Ġdidn": 636,
      "Ġinterest": 637,
      "ide": 638,
      "ĠAnd": 639,
      ").": 640,
      "Ġke": 641,
      "Ġfeeling": 642,
      "Ġreal": 643,
      "omen": 644,
      "Ġafter": 645,
      "itt": 646,
      "Ġbefore": 647,
      "ame": 648,
      "reak": 649,
      "ffe": 650,
      "Ġtw": 651,
      "Ġproble": 652,
      "Ġche": 653,
      "ree": 654,
      "Ġend": 655,
      "ever": 656,
      "ach": 657,
      "Ġmar": 658,
      "ract": 659,
      "Ġsound": 660,
      "gether": 661,
      "Ġcome": 662,
      "Ġgot": 663,
      "Ġhappen": 664,
      "other": 665,
      "Ġsame": 666,
      "Ġsure": 667,
      "Ġ1": 668,
      "Ġdis": 669,
      "ond": 670,
      "ies": 671,
      "Ġtogether": 672,
      "ated": 673,
      "im": 674,
      "ress": 675,
      "Ġanything": 676,
      "Ġwell": 677,
      "Ġ2": 678,
      "Ġagain": 679,
      "Ġhar": 680,
      "Ġsitu": 681,
      "ence": 682,
      "Ġdown": 683,
      "ason": 684,
      "ual": 685,
      "Ġyears": 686,
      "Ġwomen": 687,
      "Ġpoint": 688,
      "rent": 689,
      "Ġday": 690,
      "Ġwhy": 691,
      "Ġboth": 692,
      "Ġisn": 693,
      "ways": 694,
      "Ġdoing": 695,
      "nder": 696,
      "Ġguys": 697,
      "Ġalso": 698,
      "friend": 699,
      "ick": 700,
      "ĠJ": 701,
      "hing": 702,
      "ful": 703,
      "Ġmost": 704,
      "Ġtwo": 705,
      "Ġwhere": 706,
      "Ġreason": 707,
      "wn": 708,
      "Ġwr": 709,
      "vice": 710,
      "Ġem": 711,
      "Ġthr": 712,
      "ady": 713,
      "Ġel": 714,
      "Ġwhile": 715,
      "Ġbest": 716,
      "ass": 717,
      "Ġimp": 718,
      "Ġhere": 719,
      "Ġaround": 720,
      "Ġac": 721,
      "Ġbit": 722,
      "ĠR": 723,
      "Ġboy": 724,
      "ought": 725,
      "Ġunder": 726,
      "Ġkind": 727,
      "Ġmove": 728,
      "ried": 729,
      "Ġkeep": 730,
      "Ġdiffe": 731,
      "Ġmon": 732,
      "Ġsituation": 733,
      "Ġle": 734,
      "Ġpret": 735,
      "Ġelse": 736,
      "Ġdec": 737,
      "Ġbreak": 738,
      "Ġfuck": 739,
      "Ġalways": 740,
      "Ġhaving": 741,
      "Ġapp": 742,
      "ittle": 743,
      "os": 744,
      "Ġthough": 745,
      "Ġcou": 746,
      "Ġgirls": 747,
      "Ġhard": 748,
      "Ġlook": 749,
      "Ġmat": 750,
      "iss": 751,
      "Ġgetting": 752,
      "Ġadvice": 753,
      "Ġcomm": 754,
      "Ġlittle": 755,
      "Ġbad": 756,
      "ng": 757,
      "ase": 758,
      "Ġid": 759,
      "lfriend": 760,
      "ither": 761,
      "Ġput": 762,
      "less": 763,
      "ull": 764,
      "Ġown": 765,
      "Ġcare": 766,
      "Ġdate": 767,
      "ĠSo": 768,
      "ade": 769,
      "su": 770,
      "xt": 771,
      "Ġactually": 772,
      "ect": 773,
      "ance": 774,
      "Ġwhich": 775,
      "ily": 776,
      "Ġpretty": 777,
      "Ġdes": 778,
      "Ġcall": 779,
      "ks": 780,
      "Ġboyfriend": 781,
      "Ġgr": 782,
      "Ġtrying": 783,
      "Ġgirlfriend": 784,
      "Ġenough": 785,
      "Ġqu": 786,
      "Ġmonth": 787,
      "Ġproblem": 788,
      "Ġwants": 789,
      "Ġthrough": 790,
      "up": 791,
      "ĠWhat": 792,
      "Ġeach": 793,
      "ously": 794,
      "Ġbl": 795,
      "ĠDon": 796,
      "ĠThere": 797,
      ".\"": 798,
      "Ġthought": 799,
      "ace": 800,
      "og": 801,
      "ire": 802,
      "ĠJust": 803,
      "we": 804,
      "if": 805,
      "ĠMy": 806,
      "am": 807,
      "stand": 808,
      "Ġfl": 809,
      "ically": 810,
      "ner": 811,
      "onest": 812,
      "ĠIn": 813,
      "ince": 814,
      "Ġfew": 815,
      "Ġattract": 816,
      "Ġsounds": 817,
      "Ġaway": 818,
      "oking": 819,
      "Ġ:": 820,
      "Ġwon": 821,
      "lt": 822,
      "Ġever": 823,
      "Ġconf": 824,
      "ish": 825,
      "orm": 826,
      "ward": 827,
      "Ġop": 828,
      "ber": 829,
      "Ġte": 830,
      "Ġdating": 831,
      "ĠWe": 832,
      "peci": 833,
      "Ġdifferent": 834,
      "urn": 835,
      "Ġper": 836,
      "te": 837,
      "Ġnew": 838,
      "ible": 839,
      "ces": 840,
      "ult": 841,
      "ves": 842,
      "Ġwithout": 843,
      "Ġpost": 844,
      "Ġsc": 845,
      "Ġdeal": 846,
      "Ġmade": 847,
      "Ġfeelings": 848,
      "hen": 849,
      "Ġour": 850,
      "que": 851,
      "Ġunderstand": 852,
      "Ġwee": 853,
      "Ġemot": 854,
      "Ġanother": 855,
      "ĠDo": 856,
      "Ġthose": 857,
      "Ġwrong": 858,
      "Ġchi": 859,
      "Ġgreat": 860,
      "Ġmaybe": 861,
      "Ġmind": 862,
      "Ġaw": 863,
      "oman": 864,
      "ĠBe": 865,
      "ical": 866,
      "ize": 867,
      "Ġthese": 868,
      "time": 869,
      "Ġfact": 870,
      "Ġfun": 871,
      "Ġhappy": 872,
      "Ġob": 873,
      "Ġwoman": 874,
      "Ġmakes": 875,
      "ost": 876,
      "ĠAs": 877,
      "Ġstop": 878,
      "fort": 879,
      "vers": 880,
      "cept": 881,
      "Ġleast": 882,
      "dit": 883,
      "Ġhur": 884,
      "ntil": 885,
      "Ġexperi": 886,
      "Ġra": 887,
      "Ġrelationships": 888,
      "ood": 889,
      "Ġnothing": 890,
      "Ġcons": 891,
      "Ġsaying": 892,
      "Ġ'": 893,
      "Ġeas": 894,
      "Ġshit": 895,
      "Ġeither": 896,
      "ook": 897,
      "ob": 898,
      "Ġmeet": 899,
      "Ġsm": 900,
      "Ġbr": 901,
      "Ġdef": 902,
      "Ġcle": 903,
      "ake": 904,
      "Ġmyself": 905,
      "Ġposs": 906,
      "ody": 907,
      "Ġwouldn": 908,
      "Ġinterested": 909,
      "Ġread": 910,
      "Ġbig": 911,
      "ĠHow": 912,
      "Ġuntil": 913,
      "ready": 914,
      "Ġhonest": 915,
      "lie": 916,
      "Ġself": 917,
      "ise": 918,
      "Ġdr": 919,
      "Ġalready": 920,
      "quest": 921,
      "Ġim": 922,
      "Ġro": 923,
      "lete": 924,
      "Ġresp": 925,
      "ĠAl": 926,
      "ew": 927,
      "cus": 928,
      "Ġmany": 929,
      "Ġ3": 930,
      "Ġchange": 931,
      "Ġseems": 932,
      "Ġneeds": 933,
      "ope": 934,
      "ather": 935,
      "ention": 936,
      "Ġtalking": 937,
      "Ġass": 938,
      "ool": 939,
      "Ġhand": 940,
      "earn": 941,
      "Ġseri": 942,
      "Ġmonths": 943,
      "ac": 944,
      "cess": 945,
      "),": 946,
      "Ġtold": 947,
      "Ġshow": 948,
      "Ġwanted": 949,
      "Ġidea": 950,
      "Ġgen": 951,
      "Ġstr": 952,
      "ren": 953,
      "ert": 954,
      "Ġbelie": 955,
      "Ġlast": 956,
      "Ġmaking": 957,
      "ait": 958,
      "ib": 959,
      "Ġsince": 960,
      "aybe": 961,
      "Ġonce": 962,
      "ĠWhen": 963,
      "Ġhurt": 964,
      "Ġcho": 965,
      "ail": 966,
      "Ġold": 967,
      "Ġtrust": 968,
      "Ġquest": 969,
      "Ġlooking": 970,
      "ĠU": 971,
      "red": 972,
      "Ġrec": 973,
      "ude": 974,
      "Ġguess": 975,
      "Ġless": 976,
      "Ġemotion": 977,
      "per": 978,
      "vent": 979,
      "ons": 980,
      "times": 981,
      "Ġsha": 982,
      "fect": 983,
      "Ġmatter": 984,
      "Ġcomplete": 985,
      "Ġlearn": 986,
      "Ġtimes": 987,
      "Ġet": 988,
      "Ġturn": 989,
      "Ġstay": 990,
      "ved": 991,
      "arent": 992,
      "**": 993,
      "gest": 994,
      "arly": 995,
      "ater": 996,
      "Ġsi": 997,
      "--": 998,
      "ten": 999,
      "Ġplay": 1000,
      "ĠOn": 1001,
      "Ġdone": 1002,
      "ory": 1003,
      "Ġseem": 1004,
      "Ġnice": 1005,
      "Ġkid": 1006,
      "Ġsupp": 1007,
      "Ġeverything": 1008,
      "Ġable": 1009,
      "Ġaren": 1010,
      "Ġmen": 1011,
      "Ġits": 1012,
      "ĠSome": 1013,
      "ĠMaybe": 1014,
      "Ġetc": 1015,
      "ĠNo": 1016,
      "Ġagree": 1017,
      "Ġdep": 1018,
      "Ġwasn": 1019,
      "eah": 1020,
      "Ġimport": 1021,
      "vel": 1022,
      "ĠNot": 1023,
      "ute": 1024,
      "sue": 1025,
      "Ġter": 1026,
      "ma": 1027,
      "Ġcra": 1028,
      "uff": 1029,
      "ple": 1030,
      "chool": 1031,
      "ject": 1032,
      "Ġleave": 1033,
      "orry": 1034,
      "Ġthinking": 1035,
      "Ġwait": 1036,
      "Ġconsid": 1037,
      "Ġimportant": 1038,
      "Ġinc": 1039,
      "ign": 1040,
      "\".": 1041,
      "Ġluck": 1042,
      "ny": 1043,
      "Ġbas": 1044,
      "Ġdefin": 1045,
      "Ġpast": 1046,
      "Ġexpect": 1047,
      "ste": 1048,
      "Ġcase": 1049,
      "hed": 1050,
      "Ġnext": 1051,
      "Ġexperience": 1052,
      "Ġopen": 1053,
      "joy": 1054,
      "Ġchild": 1055,
      "ary": 1056,
      "ife": 1057,
      "Ġfo": 1058,
      "ĠAlso": 1059,
      "ps": 1060,
      "Ġmarried": 1061,
      "Ġsec": 1062,
      "ump": 1063,
      "Ġreg": 1064,
      "Ġuse": 1065,
      "Ġstuff": 1066,
      "Ġfam": 1067,
      "Ġhope": 1068,
      "Ġplace": 1069,
      "ave": 1070,
      "Ġanyone": 1071,
      "med": 1072,
      "here": 1073,
      "Ġsug": 1074,
      "ately": 1075,
      "Ġhang": 1076,
      "ĠThey": 1077,
      "ates": 1078,
      "Ġcompletely": 1079,
      "Ġvi": 1080,
      "riage": 1081,
      "Ġmet": 1082,
      "sues": 1083,
      "Ġschool": 1084,
      "sit": 1085,
      "Ġinv": 1086,
      "Ġissues": 1087,
      "Ġenjoy": 1088,
      "not": 1089,
      "Ġsl": 1090,
      "iv": 1091,
      "ense": 1092,
      "Ġinter": 1093,
      "Ġbu": 1094,
      "Ġbro": 1095,
      "itely": 1096,
      "gn": 1097,
      "Ġconvers": 1098,
      "Ġspend": 1099,
      "Ġsuggest": 1100,
      "Ġbelieve": 1101,
      "Ġmeans": 1102,
      "Ġcour": 1103,
      "fortable": 1104,
      "ness": 1105,
      "Ġfar": 1106,
      "ative": 1107,
      "ĠRe": 1108,
      "Ġlive": 1109,
      "sw": 1110,
      "sel": 1111,
      "Ġplan": 1112,
      "ning": 1113,
      "ĠThan": 1114,
      "Ġexpl": 1115,
      "UR": 1116,
      "les": 1117,
      "Ġsort": 1118,
      "Ġok": 1119,
      "Ġsays": 1120,
      "Ġnight": 1121,
      "Ġwhole": 1122,
      "Ġhead": 1123,
      "Ġty": 1124,
      "Ġworth": 1125,
      "ility": 1126,
      "Ġmarriage": 1127,
      "atch": 1128,
      "Ġrespect": 1129,
      "Ġsoci": 1130,
      "Ġissue": 1131,
      "alth": 1132,
      "ertain": 1133,
      "Ġins": 1134,
      "Ġwent": 1135,
      "Ġsle": 1136,
      "Ġansw": 1137,
      "Ġfig": 1138,
      "de": 1139,
      "ĠYour": 1140,
      "Ġsimp": 1141,
      "ĠWell": 1142,
      "ie": 1143,
      "Ġes": 1144,
      "Ġple": 1145,
      "Ġcontact": 1146,
      "gin": 1147,
      "Ġhome": 1148,
      "Ġsuch": 1149,
      "hys": 1150,
      "Ġwhatever": 1151,
      "Ġhigh": 1152,
      "Ġset": 1153,
      "Ġ**": 1154,
      "ĠSt": 1155,
      "Ġfamily": 1156,
      "ug": 1157,
      "Ġpartner": 1158,
      "Ġparent": 1159,
      "amp": 1160,
      "Ġcontro": 1161,
      "ove": 1162,
      "Ġconsider": 1163,
      "ret": 1164,
      "Ġpersonal": 1165,
      "Ġgener": 1166,
      "Ġ:)": 1167,
      "Ġbeha": 1168,
      "ĠThen": 1169,
      "Ġsub": 1170,
      "Ġph": 1171,
      "Ġexact": 1172,
      "Ġquestion": 1173,
      "ap": 1174,
      "Ġinf": 1175,
      "Ġsexual": 1176,
      "Ġcouple": 1177,
      "ang": 1178,
      "Ġcommun": 1179,
      "Ġeveryone": 1180,
      "Ġho": 1181,
      "Ġsign": 1182,
      "Ġchance": 1183,
      "Ġ--": 1184,
      "Ġwife": 1185,
      "Ġmess": 1186,
      "sh": 1187,
      "Ġrather": 1188,
      "Ġgets": 1189,
      "Ġword": 1190,
      "Ġfigure": 1191,
      "ween": 1192,
      "Ġconfid": 1193,
      "ft": 1194,
      "pecially": 1195,
      "Ġap": 1196,
      "body": 1197,
      "Ġfound": 1198,
      "Ġused": 1199,
      "Ġasking": 1200,
      "Ġphys": 1201,
      "Ġdefinitely": 1202,
      "Ġdist": 1203,
      "Ġpossible": 1204,
      "Ġlater": 1205,
      "Ġbecome": 1206,
      "Ġbetween": 1207,
      "Ġent": 1208,
      "Ġalone": 1209,
      "Ġcr": 1210,
      "alk": 1211,
      "Ġjob": 1212,
      "zy": 1213,
      "Ġsometimes": 1214,
      "ĠFor": 1215,
      "Ġobvi": 1216,
      "ub": 1217,
      "Ġrealize": 1218,
      "Ġfin": 1219,
      "Ġclose": 1220,
      "oney": 1221,
      "Ġcoll": 1222,
      "Ġserious": 1223,
      "stead": 1224,
      "Ġcomes": 1225,
      "iving": 1226,
      "eal": 1227,
      "Ġext": 1228,
      "Ġproblems": 1229,
      "Ġtot": 1230,
      "Ġexc": 1231,
      "ount": 1232,
      "URL": 1233,
      "vor": 1234,
      "ities": 1235,
      "Ġtrue": 1236,
      "Ġstand": 1237,
      "sent": 1238,
      "ict": 1239,
      "ced": 1240,
      "Ġyet": 1241,
      "day": 1242,
      "ier": 1243,
      "Ġred": 1244,
      "Ġ[": 1245,
      "Ġstarted": 1246,
      "ix": 1247,
      "Ġlikely": 1248,
      "Ġdou": 1249,
      "Ġrem": 1250,
      "rap": 1251,
      "most": 1252,
      "rect": 1253,
      "ont": 1254,
      "Ġconversation": 1255,
      "Ġhappened": 1256,
      "Ġcha": 1257,
      "Ġface": 1258,
      "Ġoften": 1259,
      "Ġpri": 1260,
      "Ġcourse": 1261,
      "Ġknows": 1262,
      "Ġworld": 1263,
      "Ġfeels": 1264,
      "ĠWhy": 1265,
      "ip": 1266,
      "Ġcomment": 1267,
      "Ġrep": 1268,
      "Ġcertain": 1269,
      "olog": 1270,
      "Ġfut": 1271,
      "Ġspeci": 1272,
      "Ġsing": 1273,
      "Ġyoung": 1274,
      "Ġtelling": 1275,
      "ken": 1276,
      "Ġweek": 1277,
      "iness": 1278,
      "Ġkids": 1279,
      "mber": 1280,
      "Ġbring": 1281,
      "Ġfriendship": 1282,
      "Ġgame": 1283,
      "ully": 1284,
      "Ġwilling": 1285,
      "Ġconc": 1286,
      "Ġparents": 1287,
      "Ġasked": 1288,
      "ĠOP": 1289,
      "Ġacc": 1290,
      "Ġappro": 1291,
      "Ġfuture": 1292,
      "....": 1293,
      "ĠGood": 1294,
      "Ġ5": 1295,
      "Ġbehavi": 1296,
      "ying": 1297,
      "Ġfucking": 1298,
      "?\"": 1299,
      "Ġav": 1300,
      "Ġcur": 1301,
      "Ġadd": 1302,
      "Ġevent": 1303,
      "est": 1304,
      "Ġothers": 1305,
      "Ġcheating": 1306,
      "ial": 1307,
      "hes": 1308,
      "Ġind": 1309,
      "Ġpass": 1310,
      "Ġnorm": 1311,
      "Ġanswer": 1312,
      "Ġusually": 1313,
      "Ġwond": 1314,
      "Ġcontrol": 1315,
      "Ġtaking": 1316,
      "00": 1317,
      "Ġhat": 1318,
      "Ġkiss": 1319,
      "ens": 1320,
      "Ġemotional": 1321,
      "Ġcommunic": 1322,
      "ege": 1323,
      "use": 1324,
      "Ġsingle": 1325,
      "Ġnum": 1326,
      "Ġfelt": 1327,
      "Ġfine": 1328,
      "Ġfr": 1329,
      "Ġcre": 1330,
      "Ġtreat": 1331,
      "Ġclear": 1332,
      "Ġdecis": 1333,
      "Ġsuck": 1334,
      "Ġshouldn": 1335,
      "ging": 1336,
      "Ġlist": 1337,
      "uring": 1338,
      "ne": 1339,
      "ord": 1340,
      "ouse": 1341,
      "more": 1342,
      "Ġsleep": 1343,
      "ĠOr": 1344,
      "Ġaccept": 1345,
      "Ġsense": 1346,
      "Ġ4": 1347,
      "Ġyes": 1348,
      "Ġwhether": 1349,
      "Ġheart": 1350,
      "Ġcontin": 1351,
      "Ġrom": 1352,
      "set": 1353,
      "Ġcar": 1354,
      "Ġhealth": 1355,
      "oid": 1356,
      "Ġpay": 1357,
      "Ġage": 1358,
      "led": 1359,
      "ern": 1360,
      "Ġexactly": 1361,
      "its": 1362,
      "Ġmoney": 1363,
      "Ġsorry": 1364,
      "Ġcollege": 1365,
      "Ġhear": 1366,
      "lic": 1367,
      "member": 1368,
      "Ġtri": 1369,
      "Ġworry": 1370,
      "Ġeasy": 1371,
      "Ġgoes": 1372,
      "Ġbo": 1373,
      "Ġdra": 1374,
      "Ġhaven": 1375,
      "Ġrest": 1376,
      "Ġattractive": 1377,
      "ling": 1378,
      "Ġdri": 1379,
      "Ġval": 1380,
      "Ġperfect": 1381,
      "Ġsecond": 1382,
      "Ġtried": 1383,
      "Ġsim": 1384,
      "Ġtra": 1385,
      "Ġopp": 1386,
      "Ġdays": 1387,
      "Ġwonder": 1388,
      "you": 1389,
      "Ġinstead": 1390,
      "Ġrun": 1391,
      "Ġago": 1392,
      "ĠYeah": 1393,
      "Ġattracted": 1394,
      "ile": 1395,
      "Ġbehavior": 1396,
      "Ġhappens": 1397,
      "mm": 1398,
      "Ġinvol": 1399,
      "Ġmention": 1400,
      "ĠIs": 1401,
      "Ġquite": 1402,
      "Ġready": 1403,
      "upid": 1404,
      "Ġalong": 1405,
      "Ġpain": 1406,
      "Ġunless": 1407,
      "ious": 1408,
      "Ġcomfortable": 1409,
      "ĠK": 1410,
      "ged": 1411,
      "ĠYes": 1412,
      "Ġworking": 1413,
      "dd": 1414,
      "Ġalmost": 1415,
      "where": 1416,
      "Ġherself": 1417,
      "sol": 1418,
      "Ġtotally": 1419,
      "Ġgiving": 1420,
      "Ġsimil": 1421,
      "cuss": 1422,
      "Ġsupport": 1423,
      "ĠAt": 1424,
      "ĠThanks": 1425,
      "Ġmin": 1426,
      "Ġbus": 1427,
      "Ġfall": 1428,
      "Ġcrazy": 1429,
      "llow": 1430,
      "Ġhold": 1431,
      "pri": 1432,
      "Ġsocial": 1433,
      "Ġflir": 1434,
      "Ġposit": 1435,
      "sy": 1436,
      "com": 1437,
      "read": 1438,
      "Ġsoon": 1439,
      "mpt": 1440,
      "Ġlikes": 1441,
      "Ġmiss": 1442,
      "ex": 1443,
      "eep": 1444,
      "Ġcut": 1445,
      "Ġside": 1446,
      "esome": 1447,
      "icul": 1448,
      "Ġseeing": 1449,
      "Ġcurrent": 1450,
      "ush": 1451,
      "ĠNow": 1452,
      "âĢ": 1453,
      "cri": 1454,
      "Ġrespons": 1455,
      "ently": 1456,
      "Ġespecially": 1457,
      "male": 1458,
      "ered": 1459,
      "Ġsimilar": 1460,
      "ger": 1461,
      "ote": 1462,
      "Ġsur": 1463,
      "orn": 1464,
      "Ġfair": 1465,
      "Ġhum": 1466,
      "ĠTo": 1467,
      "Ġknew": 1468,
      "ĠGet": 1469,
      "Ġdiscuss": 1470,
      "Ġla": 1471,
      "ized": 1472,
      "no": 1473,
      "Ġpur": 1474,
      "rence": 1475,
      "Ġtype": 1476,
      "Ġnumber": 1477,
      "Ġhouse": 1478,
      "line": 1479,
      "Ġnormal": 1480,
      "Ġleft": 1481,
      "Ġanymore": 1482,
      "Ġbroke": 1483,
      "](": 1484,
      "Ġdeser": 1485,
      "](<": 1486,
      "Ġstrong": 1487,
      "Ġhour": 1488,
      "mit": 1489,
      "Ġassu": 1490,
      "selves": 1491,
      "ĠHowever": 1492,
      "Ġdrink": 1493,
      "Ġclass": 1494,
      "als": 1495,
      "fully": 1496,
      "Ġromant": 1497,
      "Ġref": 1498,
      "band": 1499,
      "Ġfix": 1500,
      "Ġworks": 1501,
      "wise": 1502,
      "bt": 1503,
      "Ġhu": 1504,
      "Ġlevel": 1505,
      "Ġpat": 1506,
      "Ġexplain": 1507,
      "usband": 1508,
      "ild": 1509,
      "!!": 1510,
      "ĠGo": 1511,
      "ffic": 1512,
      "solute": 1513,
      "Ġgrow": 1514,
      "Ġphone": 1515,
      "Ġnat": 1516,
      "haps": 1517,
      "Ġmist": 1518,
      "the": 1519,
      "ian": 1520,
      "sec": 1521,
      "Ġremember": 1522,
      "ibility": 1523,
      "Ġsol": 1524,
      "to": 1525,
      "Ġworse": 1526,
      "Ġcas": 1527,
      "gu": 1528,
      "Ġavoid": 1529,
      "cause": 1530,
      "Ġwatch": 1531,
      "Ġpick": 1532,
      "Ġmis": 1533,
      "Ġopt": 1534,
      "ked": 1535,
      "Ġsk": 1536,
      "Ġanyway": 1537,
      "Ġfemale": 1538,
      "osed": 1539,
      "ĠEven": 1540,
      "\",": 1541,
      "Ġcool": 1542,
      "Ġopin": 1543,
      "co": 1544,
      "ird": 1545,
      "Ġlonger": 1546,
      "Ġlead": 1547,
      "kward": 1548,
      "ressed": 1549,
      "Ġdump": 1550,
      "Ġhusband": 1551,
      "Ġphysical": 1552,
      "ER": 1553,
      "unk": 1554,
      "ĠTell": 1555,
      "na": 1556,
      "ibly": 1557,
      "Ġdecision": 1558,
      "Ġroom": 1559,
      "Ġline": 1560,
      "Ġey": 1561,
      "Ġcame": 1562,
      "Ġsimply": 1563,
      "ided": 1564,
      "Ġstory": 1565,
      "Ġtook": 1566,
      "sing": 1567,
      "Ġstupid": 1568,
      "ĠAny": 1569,
      "Ġupset": 1570,
      "Ġdecide": 1571,
      "Ġpr": 1572,
      "Ġign": 1573,
      "Ġhate": 1574,
      "Ġweeks": 1575,
      "wards": 1576,
      "ied": 1577,
      "Ġshort": 1578,
      "Ġtext": 1579,
      ".)": 1580,
      "Ġstra": 1581,
      "Ġobviously": 1582,
      "Ġeff": 1583,
      "Ġattention": 1584,
      "hich": 1585,
      "ional": 1586,
      "Ġawesome": 1587,
      "ounds": 1588,
      "reci": 1589,
      "cc": 1590,
      "Ġwish": 1591,
      "Ġcouldn": 1592,
      "Ġbed": 1593,
      "Ġprof": 1594,
      "Ġsmall": 1595,
      "Ġeventually": 1596,
      "Ġlose": 1597,
      "Ġreddit": 1598,
      "Ġmoment": 1599,
      "Ġdepend": 1600,
      "Ġmust": 1601,
      "Ġtakes": 1602,
      "Ġspea": 1603,
      "Ġreasons": 1604,
      "Ġawkward": 1605,
      "Ġnecess": 1606,
      "Ġreject": 1607,
      "Ġcoming": 1608,
      "Ġview": 1609,
      "ĠLet": 1610,
      "fter": 1611,
      "Ġdude": 1612,
      "Ġfree": 1613,
      "ared": 1614,
      "Ġhor": 1615,
      "Ġliving": 1616,
      "Ġtherap": 1617,
      "Ġfight": 1618,
      "Ġinsec": 1619,
      "der": 1620,
      "lus": 1621,
      "Ġhell": 1622,
      "Ġways": 1623,
      "Ġtou": 1624,
      "Ġeffort": 1625,
      "rible": 1626,
      "Ġhealthy": 1627,
      "ross": 1628,
      "Ġabsolute": 1629,
      "Ġthinks": 1630,
      "Ġentire": 1631,
      "Ġtend": 1632,
      "Ġeasier": 1633,
      "uct": 1634,
      "Ġreact": 1635,
      "uth": 1636,
      "Ġdet": 1637,
      "air": 1638,
      "ealous": 1639,
      "Ġhot": 1640,
      "Ġweird": 1641,
      "Ġduring": 1642,
      "Ġromantic": 1643,
      "Ġpot": 1644,
      "Ġhalf": 1645,
      "Ġappreci": 1646,
      "Ġstep": 1647,
      "Ġimag": 1648,
      "Ġgeneral": 1649,
      "Ġcheat": 1650,
      "icture": 1651,
      "Ġbitch": 1652,
      "but": 1653,
      "Ġ6": 1654,
      "Ġconfidence": 1655,
      "Ġhit": 1656,
      "stant": 1657,
      "Ġjud": 1658,
      "Ġ...": 1659,
      "Ġseriously": 1660,
      "Ġinit": 1661,
      "OT": 1662,
      "Ġdam": 1663,
      "Ġdirect": 1664,
      "Ġinvolved": 1665,
      "Ġgiven": 1666,
      "raid": 1667,
      "fficult": 1668,
      "Ġpicture": 1669,
      "ĠHave": 1670,
      "ĠOne": 1671,
      "Ġseen": 1672,
      "Ġdistance": 1673,
      "ĠEvery": 1674,
      "spect": 1675,
      "Ġcommit": 1676,
      "Ġfollow": 1677,
      "ault": 1678,
      "how": 1679,
      "Ġdifficult": 1680,
      "Ġcount": 1681,
      "Ġlack": 1682,
      "mat": 1683,
      "Ġdates": 1684,
      "Ġmovi": 1685,
      "Ġgl": 1686,
      "ression": 1687,
      "Ġended": 1688,
      "Ġname": 1689,
      "ĠOh": 1690,
      "Ġwalk": 1691,
      "ĠAre": 1692,
      "ific": 1693,
      "Ġafraid": 1694,
      "Ġcreep": 1695,
      "reaking": 1696,
      "side": 1697,
      "Ġmeant": 1698,
      "Ġconcern": 1699,
      "ĠUn": 1700,
      "Ġjealous": 1701,
      "ans": 1702,
      "cing": 1703,
      "Ġquick": 1704,
      "Ġfail": 1705,
      "Ġcontinue": 1706,
      "what": 1707,
      "Ġbar": 1708,
      "udd": 1709,
      "ower": 1710,
      "ĠTh": 1711,
      "Ġokay": 1712,
      "Ġbother": 1713,
      "Ġwords": 1714,
      "Ġusing": 1715,
      "Ġdivor": 1716,
      "Ġru": 1717,
      "Ġbook": 1718,
      "Ġcau": 1719,
      "Ġlooks": 1720,
      "Ġdoubt": 1721,
      "Ġchoice": 1722,
      "onse": 1723,
      "Ġgra": 1724,
      "ĠV": 1725,
      "any": 1726,
      "Ġsy": 1727,
      "Ġmale": 1728,
      "ĠAll": 1729,
      "Ġallow": 1730,
      "Ġthree": 1731,
      "Ġpress": 1732,
      "Ġemotionally": 1733,
      "Ġfocus": 1734,
      "app": 1735,
      "reme": 1736,
      "Ġthemselves": 1737,
      "az": 1738,
      "Ġmed": 1739,
      "Ġones": 1740,
      "pl": 1741,
      "che": 1742,
      "Ġstraight": 1743,
      "Ġbody": 1744,
      "Ġstate": 1745,
      "Ġexperien": 1746,
      "Ġcommon": 1747,
      "Ġed": 1748,
      "Ġapproach": 1749,
      "cy": 1750,
      "Ġreading": 1751,
      "ors": 1752,
      "Ġexamp": 1753,
      "Ġhonestly": 1754,
      "min": 1755,
      "Ġbegin": 1756,
      "rew": 1757,
      "hile": 1758,
      "Ġapart": 1759,
      "Ġmother": 1760,
      "Ġstud": 1761,
      "Ġdifference": 1762,
      "Ġopinion": 1763,
      "Ġz": 1764,
      "Ġaffect": 1765,
      "ĠTry": 1766,
      "ics": 1767,
      "Ġgrou": 1768,
      "Ġcompl": 1769,
      "Ġhuge": 1770,
      "arily": 1771,
      "Ġtouch": 1772,
      "Ġret": 1773,
      "ped": 1774,
      "Ġ20": 1775,
      "Ġdont": 1776,
      "Ġdrunk": 1777,
      "Ġtop": 1778,
      "Ġinteresting": 1779,
      "Ġcheated": 1780,
      "Ġyeah": 1781,
      "Ġabsolutely": 1782,
      "ring": 1783,
      "ĠDoes": 1784,
      "Ġshare": 1785,
      "for": 1786,
      "Ġguil": 1787,
      "Ġment": 1788,
      "Ġchildren": 1789,
      "Ġlisten": 1790,
      "Ġocc": 1791,
      "Ġcoun": 1792,
      "Ġmor": 1793,
      "unch": 1794,
      "ety": 1795,
      "ĠAfter": 1796,
      "Ġneg": 1797,
      "Ġner": 1798,
      "Ġagainst": 1799,
      "Ġintim": 1800,
      "ments": 1801,
      "Ġassho": 1802,
      "Ġfore": 1803,
      "now": 1804,
      "Ġfear": 1805,
      "Ġdesire": 1806,
      "Ġtest": 1807,
      "Ġspecif": 1808,
      "Ġjo": 1809,
      "ering": 1810,
      "Ġev": 1811,
      "ational": 1812,
      "ike": 1813,
      "inner": 1814,
      "Ġwanting": 1815,
      "Ġgone": 1816,
      "though": 1817,
      "Ġfull": 1818,
      "Ġrespond": 1819,
      "Ġchick": 1820,
      "Ġhimself": 1821,
      "nect": 1822,
      "uly": 1823,
      "Ġcause": 1824,
      "Ġloved": 1825,
      "Ġtruth": 1826,
      "Ġang": 1827,
      "Ġlost": 1828,
      "ĠSO": 1829,
      "reed": 1830,
      "Ġdrive": 1831,
      "Ġnon": 1832,
      "Ġdated": 1833,
      "Ġmeeting": 1834,
      "Ġhours": 1835,
      "Ġbra": 1836,
      "ĠBecause": 1837,
      "like": 1838,
      "Ġnatur": 1839,
      "Ġform": 1840,
      "Ġregard": 1841,
      "iting": 1842,
      "Ġfault": 1843,
      "Ġdescri": 1844,
      "wor": 1845,
      "Ġsomebody": 1846,
      "ĠPeople": 1847,
      "Ġbasically": 1848,
      "Ġpsy": 1849,
      "Ġporn": 1850,
      "Ġcalled": 1851,
      "Ġbab": 1852,
      "ances": 1853,
      "ĠSometimes": 1854,
      "Ġworked": 1855,
      "Ġtalked": 1856,
      "sed": 1857,
      "Ġactions": 1858,
      "Ġloves": 1859,
      "Ġsucks": 1860,
      "ĠMost": 1861,
      "Ġris": 1862,
      "ding": 1863,
      "Ġterm": 1864,
      "Ġ10": 1865,
      "Ġear": 1866,
      "Ġir": 1867,
      "Ġextreme": 1868,
      "ively": 1869,
      "ffect": 1870,
      "ages": 1871,
      "Ġassume": 1872,
      "Ġsw": 1873,
      "par": 1874,
      "tle": 1875,
      "ides": 1876,
      "Ġquestions": 1877,
      "ines": 1878,
      "Ġresponse": 1879,
      "Ġcond": 1880,
      "Ġonline": 1881,
      "Ġforg": 1882,
      "Ġeng": 1883,
      "Ġlau": 1884,
      "Ġfinding": 1885,
      "Ġemail": 1886,
      "Ġbull": 1887,
      "Ġdecided": 1888,
      "shit": 1889,
      "OU": 1890,
      "ges": 1891,
      "ners": 1892,
      "used": 1893,
      "itted": 1894,
      "ially": 1895,
      "Ġbased": 1896,
      "Ġcommunication": 1897,
      "Ġgave": 1898,
      "Ġlives": 1899,
      "Ġintern": 1900,
      "*.": 1901,
      "she": 1902,
      "Ġsend": 1903,
      "Ġputting": 1904,
      "Ġcannot": 1905,
      "Ġsuc": 1906,
      "Ġpus": 1907,
      "eriod": 1908,
      "Ġpar": 1909,
      "Ġcheck": 1910,
      "irc": 1911,
      "Ġexample": 1912,
      "Ġadv": 1913,
      "Ġknowing": 1914,
      "Ġyours": 1915,
      "Ġtruly": 1916,
      "oo": 1917,
      "Ġsimple": 1918,
      "Ġdeserve": 1919,
      "oring": 1920,
      "Ġthread": 1921,
      "Ġforget": 1922,
      "Ġappreciate": 1923,
      "Ġargu": 1924,
      "go": 1925,
      "ortun": 1926,
      "ock": 1927,
      "Ġcor": 1928,
      "Ġthrow": 1929,
      "ĠMake": 1930,
      ",\"": 1931,
      "Ġcertainly": 1932,
      "Ġpotent": 1933,
      "Ġsad": 1934,
      "rist": 1935,
      "Ġslow": 1936,
      "Ġgf": 1937,
      "Ġweight": 1938,
      "Ġorder": 1939,
      "Ġincl": 1940,
      "Ġplease": 1941,
      "Ġcounsel": 1942,
      "Ġsho": 1943,
      "book": 1944,
      "ts": 1945,
      "ĠSounds": 1946,
      "Ġoutside": 1947,
      "Ġmarry": 1948,
      "right": 1949,
      "Ġparty": 1950,
      "Ġmoving": 1951,
      "Ġignore": 1952,
      "Ġapolog": 1953,
      "Ġdro": 1954,
      "Ġgames": 1955,
      "ution": 1956,
      "ĠOf": 1957,
      "Ġswe": 1958,
      "Ġhelps": 1959,
      "Ġimagine": 1960,
      "jor": 1961,
      "Ġemotions": 1962,
      "Ġhanging": 1963,
      "ppy": 1964,
      "Ġexcept": 1965,
      "Ġtowards": 1966,
      "Ġdick": 1967,
      "Ġconfident": 1968,
      "Ġ100": 1969,
      "IN": 1970,
      "ange": 1971,
      "eem": 1972,
      "Ġeffect": 1973,
      "ĠTH": 1974,
      "Ġclearly": 1975,
      "Ġuncom": 1976,
      "ĠEx": 1977,
      "Ġpull": 1978,
      "ited": 1979,
      "Ġbreaking": 1980,
      "Ġconstant": 1981,
      "Ġhandle": 1982,
      "irth": 1983,
      "nty": 1984,
      "Ġfucked": 1985,
      "Ġbuild": 1986,
      "ah": 1987,
      "Ġparticul": 1988,
      "Ġpersonality": 1989,
      "ĠTake": 1990,
      "Ġhuman": 1991,
      "Ġperiod": 1992,
      "Ġbreakup": 1993,
      "Ġtrou": 1994,
      "ath": 1995,
      "mend": 1996,
      "ined": 1997,
      "Ġlie": 1998,
      "Ġspecial": 1999,
      "Ġdeep": 2000,
      "ank": 2001,
      "ĠSorry": 2002,
      "row": 2003,
      "ills": 2004,
      "velop": 2005,
      "medi": 2006,
      "sp": 2007,
      "ining": 2008,
      "str": 2009,
      "Ġotherwise": 2010,
      "Ġmajor": 2011,
      "Ġgroup": 2012,
      "Ġmine": 2013,
      "!\"": 2014,
      "ls": 2015,
      "Ġneeded": 2016,
      "LL": 2017,
      "fer": 2018,
      "Ġleg": 2019,
      "Ġpressure": 2020,
      "uming": 2021,
      "Ġinform": 2022,
      "Ġdinner": 2023,
      "Ġangry": 2024,
      "Ġplaying": 2025,
      "ax": 2026,
      "Ġann": 2027,
      "ipul": 2028,
      "iment": 2029,
      "ired": 2030,
      "Ġopportun": 2031,
      "Ġwast": 2032,
      "ndom": 2033,
      "Ġmoved": 2034,
      "Ġwaiting": 2035,
      "Ġspeak": 2036,
      "gress": 2037,
      "Ġtea": 2038,
      "ĠIts": 2039,
      "pective": 2040,
      "Ġsaw": 2041,
      "Ġsurpri": 2042,
      "Ġcirc": 2043,
      "Ġgenerally": 2044,
      "by": 2045,
      "Ġfavor": 2046,
      "Ġlearned": 2047,
      "Ġasshole": 2048,
      "Ġconv": 2049,
      "Ġolder": 2050,
      "Ġregret": 2051,
      "Ġdivorce": 2052,
      "Ġconnect": 2053,
      "Ġperspective": 2054,
      "ale": 2055,
      "ĠNOT": 2056,
      "Ġhasn": 2057,
      "IT": 2058,
      "Ġrandom": 2059,
      "Ġtyp": 2060,
      "Ġamaz": 2061,
      "Ġbirth": 2062,
      "ĠHer": 2063,
      "Ġearly": 2064,
      "Ġmom": 2065,
      "Ġpartners": 2066,
      "Ġpract": 2067,
      "Ġhowever": 2068,
      "ues": 2069,
      "Ġchanged": 2070,
      "ĠLike": 2071,
      "izing": 2072,
      "vot": 2073,
      "Ġdevelop": 2074,
      "come": 2075,
      "man": 2076,
      "Ġhop": 2077,
      "Ġtaken": 2078,
      "eriously": 2079,
      "Ġlots": 2080,
      "Ġsituations": 2081,
      "Ġheard": 2082,
      "epend": 2083,
      "Ġclean": 2084,
      "onna": 2085,
      "Ġobvious": 2086,
      "Ġmanipul": 2087,
      "Ġmovie": 2088,
      "ane": 2089,
      "Ġleaving": 2090,
      "Ġrealized": 2091,
      "aw": 2092,
      "Ġmessage": 2093,
      "Ġoffer": 2094,
      "Ġamount": 2095,
      "bit": 2096,
      "Ġrid": 2097,
      "Ġworried": 2098,
      "Ġstress": 2099,
      "Ġimmedi": 2100,
      "pro": 2101,
      "Ġeat": 2102,
      "urity": 2103,
      "fortun": 2104,
      "Ġuncomfortable": 2105,
      "Ġbaby": 2106,
      "Ġperhaps": 2107,
      "Ġprom": 2108,
      "urb": 2109,
      "Ġthoughts": 2110,
      "Ġrisk": 2111,
      "kend": 2112,
      "which": 2113,
      "Ġch": 2114,
      "tern": 2115,
      "Ġgonna": 2116,
      "Ġsuper": 2117,
      "ĠHa": 2118,
      "Ġturned": 2119,
      "Ġplenty": 2120,
      "Ġknown": 2121,
      "Ġrecom": 2122,
      "Ġvis": 2123,
      "Ġ/": 2124,
      "Ġterms": 2125,
      "ĠThank": 2126,
      "Ġ=": 2127,
      "Ġsat": 2128,
      "Ġpersonally": 2129,
      "Ġblame": 2130,
      "just": 2131,
      "Ġiniti": 2132,
      "Ġintell": 2133,
      "lect": 2134,
      "Ġbusy": 2135,
      "Ġnecessarily": 2136,
      "ings": 2137,
      "Ġmature": 2138,
      "Ġpsych": 2139,
      "Ġweekend": 2140,
      "Ġrecommend": 2141,
      "cal": 2142,
      "nce": 2143,
      "Ġlow": 2144,
      "Ġstick": 2145,
      "Ġfather": 2146,
      "Ġfunny": 2147,
      "Ġmistake": 2148,
      "ari": 2149,
      "Ġabove": 2150,
      "Ġmut": 2151,
      "lling": 2152,
      "aut": 2153,
      "umb": 2154,
      "Ġfant": 2155,
      "Ġsever": 2156,
      "Ġsuccess": 2157,
      "Ġbuy": 2158,
      "Ġenc": 2159,
      "do": 2160,
      "Ġ9": 2161,
      "You": 2162,
      "Ġbene": 2163,
      "gr": 2164,
      "Ġliked": 2165,
      "Ġactiv": 2166,
      "Ġexcuse": 2167,
      "mb": 2168,
      "Ġaff": 2169,
      "ĠFirst": 2170,
      "Ġshy": 2171,
      "Ġspace": 2172,
      "acy": 2173,
      "Ġchoose": 2174,
      "Ġhook": 2175,
      "Ġaccount": 2176,
      "Ġfront": 2177,
      "Ġworst": 2178,
      "Ġthanks": 2179,
      "Ġblow": 2180,
      "Ġdamn": 2181,
      "Ġkill": 2182,
      "ĠOnce": 2183,
      "ext": 2184,
      "ĠCh": 2185,
      "Ġcu": 2186,
      "mpat": 2187,
      "ĠSeriously": 2188,
      "He": 2189,
      "ted": 2190,
      "Ġdrug": 2191,
      "Ġpositive": 2192,
      "Ġrelig": 2193,
      "Ġfinally": 2194,
      "ĠSee": 2195,
      "Ġsepar": 2196,
      "Ġclos": 2197,
      "Ġdad": 2198,
      "Ġmast": 2199,
      "ify": 2200,
      "âĢĻ": 2201,
      "Ġflirting": 2202,
      "Ġbenef": 2203,
      "Ġsent": 2204,
      "Ġbullshit": 2205,
      "ustr": 2206,
      "urther": 2207,
      "erson": 2208,
      "Ġselfish": 2209,
      "head": 2210,
      "Ġsomewhere": 2211,
      "Ġinternet": 2212,
      "Ġwar": 2213,
      "Ġpossibly": 2214,
      "Ġinformation": 2215,
      "Ġkinda": 2216,
      "Ġspending": 2217,
      "Ġcasual": 2218,
      "Ġvir": 2219,
      "utes": 2220,
      "Ġamazing": 2221,
      "con": 2222,
      "isf": 2223,
      "ĠAsk": 2224,
      "ition": 2225,
      "ia": 2226,
      "ltim": 2227,
      "ront": 2228,
      "Ġacting": 2229,
      "Ġresult": 2230,
      "ffee": 2231,
      "Ġorg": 2232,
      "Ġprocess": 2233,
      "Ġcreepy": 2234,
      "Ġtrouble": 2235,
      "Ġhair": 2236,
      "Ġpregn": 2237,
      "Ġcalling": 2238,
      "that": 2239,
      "Ġball": 2240,
      "Ġprov": 2241,
      "Ġest": 2242,
      "ificant": 2243,
      "Ġseveral": 2244,
      "Ġlaugh": 2245,
      "Ġforward": 2246,
      "Ġpresent": 2247,
      "Ġfu": 2248,
      "Ġlight": 2249,
      "Ġadmit": 2250,
      "Ġintro": 2251,
      "miss": 2252,
      "Ġbroken": 2253,
      "Ġcomments": 2254,
      "Ġeyes": 2255,
      "Ġremind": 2256,
      "aught": 2257,
      "Ġattraction": 2258,
      "Ġletting": 2259,
      "mor": 2260,
      "Ġweren": 2261,
      "Ġaware": 2262,
      "Ġoption": 2263,
      "Ġcondom": 2264,
      "my": 2265,
      "Ġpiss": 2266,
      "ards": 2267,
      "Ġinsecure": 2268,
      "Ġwithin": 2269,
      "ses": 2270,
      "Ġexist": 2271,
      "Ġdetail": 2272,
      "Ġextremely": 2273,
      "Ġkey": 2274,
      "aged": 2275,
      "Ġgotten": 2276,
      "Ġposition": 2277,
      "Ġadult": 2278,
      "Ġspent": 2279,
      "agree": 2280,
      "Ġmentioned": 2281,
      "Ġnegative": 2282,
      "ular": 2283,
      "oint": 2284,
      "Ġsupposed": 2285,
      "rely": 2286,
      "Ġphysically": 2287,
      "Ġ;": 2288,
      "tic": 2289,
      "Ġqual": 2290,
      "hind": 2291,
      "ient": 2292,
      "hir": 2293,
      "ident": 2294,
      "ĠOK": 2295,
      "Ġinst": 2296,
      "Ġcry": 2297,
      "Ġrequ": 2298,
      "Ġgives": 2299,
      "Ġbehind": 2300,
      "ĠYOU": 2301,
      "Ġtough": 2302,
      "Ġmid": 2303,
      "Ġpen": 2304,
      "ĠOther": 2305,
      "Ġatte": 2306,
      "dden": 2307,
      "Ġfood": 2308,
      "ached": 2309,
      "ming": 2310,
      "Ġcal": 2311,
      "Ġlying": 2312,
      "alking": 2313,
      "ĠCan": 2314,
      "Ġgrad": 2315,
      "Ġmental": 2316,
      "Ġdem": 2317,
      "Ġglad": 2318,
      "Ġsweet": 2319,
      "Ġwear": 2320,
      "Ġmot": 2321,
      "Ġmad": 2322,
      "Ġeasily": 2323,
      "Ġlate": 2324,
      "ĠTr": 2325,
      "Ġpotential": 2326,
      "ĠStop": 2327,
      "Ġthank": 2328,
      "ism": 2329,
      "Ġwh": 2330,
      "Ġabus": 2331,
      "ping": 2332,
      "Ġshot": 2333,
      "Ġstarting": 2334,
      "Ġsmart": 2335,
      "Ġcommitment": 2336,
      "akes": 2337,
      "ĠAg": 2338,
      "ĠDid": 2339,
      "att": 2340,
      "ĠEither": 2341,
      "Ġscen": 2342,
      "ĠHere": 2343,
      "Ġquickly": 2344,
      "ery": 2345,
      "Ġkeeping": 2346,
      "oss": 2347,
      "ĠAn": 2348,
      "pped": 2349,
      "oura": 2350,
      "Ġprevi": 2351,
      "Ġgay": 2352,
      "ĠGive": 2353,
      "ĠFrom": 2354,
      "Ġcoffee": 2355,
      "ket": 2356,
      "Ġimpro": 2357,
      "Ġbusiness": 2358,
      "Ġinterests": 2359,
      "Ġannoy": 2360,
      "fortunately": 2361,
      "oc": 2362,
      "Ġfre": 2363,
      "Ġdisagree": 2364,
      "Ġhappiness": 2365,
      "oth": 2366,
      "ĠBeing": 2367,
      "Ġsignificant": 2368,
      "Ġequ": 2369,
      "itude": 2370,
      "Ġlog": 2371,
      "lit": 2372,
      "Ġcute": 2373,
      "ĠOk": 2374,
      "Ġexpress": 2375,
      "Ġunderstanding": 2376,
      "Ġjump": 2377,
      "Ġtherapy": 2378,
      "Ġprefer": 2379,
      "Ġhands": 2380,
      "Ġrecently": 2381,
      "Ġimmediately": 2382,
      "rel": 2383,
      "Ġgif": 2384,
      "ING": 2385,
      "Ġprofess": 2386,
      "ches": 2387,
      "cial": 2388,
      "of": 2389,
      "Ġstri": 2390,
      "Ġinteract": 2391,
      "ON": 2392,
      "outh": 2393,
      "Ġ30": 2394,
      "Ġminutes": 2395,
      "cl": 2396,
      "uine": 2397,
      "Ġvalue": 2398,
      "Ġdepends": 2399,
      "Ġconstantly": 2400,
      "ins": 2401,
      "Ġfurther": 2402,
      "Ġhist": 2403,
      "Ġexperiences": 2404,
      "ark": 2405,
      "Ġappear": 2406,
      "Ġobs": 2407,
      "Ġplans": 2408,
      "Ġmus": 2409,
      "ĠPer": 2410,
      "Ġeye": 2411,
      "ec": 2412,
      "Ġcult": 2413,
      "Ġresponsibility": 2414,
      "Ġmostly": 2415,
      "Ġtherapist": 2416,
      "vous": 2417,
      "ĠGir": 2418,
      "Ġimmat": 2419,
      "Ġsn": 2420,
      "Ġbeaut": 2421,
      "Ġopportunity": 2422,
      "Ġforce": 2423,
      "Ġultim": 2424,
      "Ġunha": 2425,
      "Ġforever": 2426,
      "Ġoppos": 2427,
      "Ġmeaning": 2428,
      "unt": 2429,
      "Ġtells": 2430,
      "Ġhelped": 2431,
      "Ġclub": 2432,
      "Ġacross": 2433,
      "Ġreply": 2434,
      "Ġhorrible": 2435,
      "Ġthreat": 2436,
      "istic": 2437,
      "Ġcomplain": 2438,
      "Ġmutual": 2439,
      "ys": 2440,
      "Ġ18": 2441,
      "Ġdrama": 2442,
      "Ġgenuine": 2443,
      "Ġuni": 2444,
      "Ġmasturb": 2445,
      "gy": 2446,
      "Ġperfectly": 2447,
      "ĠRed": 2448,
      "Ġjudge": 2449,
      "Ġlar": 2450,
      "ices": 2451,
      "??": 2452,
      "ised": 2453,
      "ĠBy": 2454,
      "Ġstopped": 2455,
      "Ġshows": 2456,
      "Ġterrible": 2457,
      "Ġharder": 2458,
      "Ġbf": 2459,
      "Ġpoor": 2460,
      "Ġpush": 2461,
      "ensive": 2462,
      "lease": 2463,
      "ants": 2464,
      "ĠKeep": 2465,
      "Ġ_": 2466,
      "Ġcommitted": 2467,
      "Ġsatisf": 2468,
      "Ġwrite": 2469,
      "Ġoccas": 2470,
      "EA": 2471,
      "ĠEdit": 2472,
      "Ġori": 2473,
      "ef": 2474,
      "Ġentirely": 2475,
      "Ġnervous": 2476,
      "Ġscrew": 2477,
      "Ġfast": 2478,
      "ister": 2479,
      "----": 2480,
      "Ġsafe": 2481,
      "Ġnatural": 2482,
      "Ġ8": 2483,
      "Ġthats": 2484,
      "room": 2485,
      "ĠWith": 2486,
      "Ġcorrect": 2487,
      "Ġfrustr": 2488,
      "Ġfat": 2489,
      "Ġhistory": 2490,
      "Ġsexually": 2491,
      "Ġbrother": 2492,
      "Ġrelax": 2493,
      "Ġkept": 2494,
      "icking": 2495,
      "Ġcares": 2496,
      "eas": 2497,
      "Ġpower": 2498,
      "Ġdue": 2499,
      "Ġedit": 2500,
      "break": 2501,
      "ĠFind": 2502,
      "Ġsecret": 2503,
      "Ġzone": 2504,
      "Ġdepression": 2505,
      "Ġdouche": 2506,
      "Ġsleeping": 2507,
      "ched": 2508,
      "Ġreality": 2509,
      "coho": 2510,
      "Ġresent": 2511,
      "Ġstarts": 2512,
      "av": 2513,
      "Ġhob": 2514,
      "vest": 2515,
      "Ġfriendly": 2516,
      "Ġspecific": 2517,
      "iter": 2518,
      "idence": 2519,
      "anger": 2520,
      "Ġremain": 2521,
      "Ġpictures": 2522,
      "Ġreturn": 2523,
      "Ġpleas": 2524,
      "Ġlaw": 2525,
      "Ġattempt": 2526,
      "ta": 2527,
      "yond": 2528,
      "Ġdepressed": 2529,
      "ĠAct": 2530,
      "Ġgain": 2531,
      "Ġvirgin": 2532,
      "ze": 2533,
      "illy": 2534,
      "Ġreaction": 2535,
      "ned": 2536,
      "Ġwin": 2537,
      "Ġfit": 2538,
      "ĠHonest": 2539,
      "ĠGu": 2540,
      "Ġfantas": 2541,
      "this": 2542,
      "Ġindic": 2543,
      "ĠWhile": 2544,
      "Ġshitty": 2545,
      "Ġprior": 2546,
      "Ġopposite": 2547,
      "Ġbi": 2548,
      "work": 2549,
      "ĠWho": 2550,
      "Ġscared": 2551,
      "Ġ<": 2552,
      "oud": 2553,
      "ledge": 2554,
      "ĠWould": 2555,
      "Ġconcerned": 2556,
      "otect": 2557,
      "cle": 2558,
      "Ġnear": 2559,
      "cious": 2560,
      "Ġintent": 2561,
      "Ġflirt": 2562,
      "ĠPerhaps": 2563,
      "ĠPro": 2564,
      "Ġcounseling": 2565,
      "ules": 2566,
      "ogam": 2567,
      "Ġchat": 2568,
      "Ġsudden": 2569,
      "omp": 2570,
      "Ġsomehow": 2571,
      "Ġcommunicate": 2572,
      "igh": 2573,
      "Ġtoday": 2574,
      "Ġemb": 2575,
      "Ġdisapp": 2576,
      "Ġpub": 2577,
      "Ġlosing": 2578,
      "Ġcla": 2579,
      "ogn": 2580,
      "Ġconfused": 2581,
      "ĠReddit": 2582,
      "Ġbound": 2583,
      "Ġactual": 2584,
      "Ġslight": 2585,
      "ĠUnless": 2586,
      "Ġsave": 2587,
      "Ġunf": 2588,
      "Ġunre": 2589,
      "lish": 2590,
      "Ġinclud": 2591,
      "Ġincred": 2592,
      "yle": 2593,
      "ones": 2594,
      "Ġguilt": 2595,
      "lies": 2596,
      "Ġcomprom": 2597,
      "Ġassuming": 2598,
      "Ġsubject": 2599,
      "respect": 2600,
      "cise": 2601,
      "Ġpriv": 2602,
      "aces": 2603,
      "ĠMe": 2604,
      "Ġimmature": 2605,
      "xual": 2606,
      "Ġfreak": 2607,
      "Ġchar": 2608,
      "Ġforgive": 2609,
      "ales": 2610,
      "ĠChrist": 2611,
      "Ġpill": 2612,
      "Ġloving": 2613,
      "Ġchances": 2614,
      "ailable": 2615,
      "asm": 2616,
      "Ġjer": 2617,
      "Ġseemed": 2618,
      "Ġsuppose": 2619,
      "Ġcrap": 2620,
      "arently": 2621,
      "Ġunhappy": 2622,
      "Ġabuse": 2623,
      "Ġdrea": 2624,
      "lev": 2625,
      "Ġprep": 2626,
      "Ġregardless": 2627,
      "Ġmaint": 2628,
      "Ġprop": 2629,
      "Ġcomfort": 2630,
      "ended": 2631,
      "Ġsexy": 2632,
      "Ġwondering": 2633,
      "Ġcuri": 2634,
      "Ġvide": 2635,
      "Ġdesper": 2636,
      "Ġpossibility": 2637,
      "Ġ7": 2638,
      "ĠTalk": 2639,
      "Ġstat": 2640,
      "Ġabusive": 2641,
      "dle": 2642,
      "lo": 2643,
      "ored": 2644,
      "br": 2645,
      "Ġwis": 2646,
      "Ġstuck": 2647,
      "ĠSay": 2648,
      "priate": 2649,
      "Ġhappening": 2650,
      "some": 2651,
      "Ġpie": 2652,
      "ung": 2653,
      "ples": 2654,
      "Ġill": 2655,
      "Ġproper": 2656,
      "ĠPerson": 2657,
      "Ġvalid": 2658,
      "Ġ;)": 2659,
      "pite": 2660,
      "Ġpa": 2661,
      "ceive": 2662,
      "ĠLook": 2663,
      "Ġvag": 2664,
      "Ġintellig": 2665,
      "Ġdoct": 2666,
      "Ġdiscussion": 2667,
      "Ġcompat": 2668,
      "Ġchanges": 2669,
      "Ġinside": 2670,
      "Ġton": 2671,
      "ĠSince": 2672,
      "Ġbrain": 2673,
      "em": 2674,
      "Ġfairly": 2675,
      "du": 2676,
      "Ġneither": 2677,
      "Ġstaying": 2678,
      "Ġahead": 2679,
      "Ġconsidering": 2680,
      "Ġargument": 2681,
      "DIT": 2682,
      "iful": 2683,
      "AT": 2684,
      "Ġsake": 2685,
      "Ġreasonable": 2686,
      "oke": 2687,
      "Ġalcoho": 2688,
      "Ġmood": 2689,
      "Ġrecogn": 2690,
      "Ġmissing": 2691,
      "Ġlone": 2692,
      "ĠAm": 2693,
      "Ġattitude": 2694,
      "Ġoptions": 2695,
      "Ġrequire": 2696,
      "ak": 2697,
      "Ġrational": 2698,
      "Ġcalls": 2699,
      "Ġflow": 2700,
      "Ġdrinking": 2701,
      "The": 2702,
      "Ġorigin": 2703,
      "Ġhy": 2704,
      "term": 2705,
      "Ġpoints": 2706,
      "Ġwatching": 2707,
      "Ġpop": 2708,
      "Ġanx": 2709,
      "voted": 2710,
      "yn": 2711,
      "ĠWomen": 2712,
      "Ġdealing": 2713,
      "Ġlucky": 2714,
      "Ġbeginning": 2715,
      "Ġsister": 2716,
      "Ġcatch": 2717,
      "Ġbeyond": 2718,
      "aries": 2719,
      "ĠST": 2720,
      "Ġalthough": 2721,
      "Ġfinan": 2722,
      ".*": 2723,
      "OO": 2724,
      "Ġgod": 2725,
      "Ġturns": 2726,
      "Ġrule": 2727,
      "Ġinvest": 2728,
      "ures": 2729,
      "Ġlearning": 2730,
      "ym": 2731,
      "Ġsomewhat": 2732,
      "ĠSure": 2733,
      "Ġcap": 2734,
      "Ġpursue": 2735,
      "ĠHonestly": 2736,
      "gue": 2737,
      "Ġfell": 2738,
      "Ġnotice": 2739,
      "Ġbecame": 2740,
      "Ġtwice": 2741,
      "gir": 2742,
      "well": 2743,
      "Ġcling": 2744,
      "Ġprevious": 2745,
      "Ġcat": 2746,
      "Ġring": 2747,
      "Ġhurting": 2748,
      "ĠSh": 2749,
      "Ġguilty": 2750,
      "Ġmouth": 2751,
      "Ġgirlfriends": 2752,
      "Ġaffection": 2753,
      "Ġrepe": 2754,
      "Ġcold": 2755,
      "Ġencoura": 2756,
      "Ġsilly": 2757,
      "Ġtown": 2758,
      "ching": 2759,
      "ĠSex": 2760,
      "ĠDO": 2761,
      "Ġmonogam": 2762,
      "*,": 2763,
      "ĠWhich": 2764,
      "Ġsmile": 2765,
      "Ġyounger": 2766,
      "play": 2767,
      "Ġbunch": 2768,
      "erable": 2769,
      "Ġparticular": 2770,
      "Ġplaces": 2771,
      "Ġlaid": 2772,
      "AN": 2773,
      "ising": 2774,
      "Ġholding": 2775,
      "ĠThink": 2776,
      "ĠThese": 2777,
      "Ġresponsible": 2778,
      "el": 2779,
      "Ġitself": 2780,
      "ries": 2781,
      "Ġmain": 2782,
      "Ġdrop": 2783,
      "Ġcompany": 2784,
      "Ġextra": 2785,
      "hh": 2786,
      "Ġbudd": 2787,
      "Ġdog": 2788,
      "ĠBas": 2789,
      "Ġdecent": 2790,
      "mate": 2791,
      "Ġbeautiful": 2792,
      "cent": 2793,
      "Ġsme": 2794,
      "ĠAN": 2795,
      "ĠAnyway": 2796,
      "Ġshowing": 2797,
      "Ġridicul": 2798,
      "lig": 2799,
      "ash": 2800,
      "Ġpretend": 2801,
      "Ġrejected": 2802,
      "Ġlines": 2803,
      "iot": 2804,
      "Ġaction": 2805,
      "Ġexpectations": 2806,
      "Ġposts": 2807,
      "ivid": 2808,
      "Ġslept": 2809,
      "Ġcrit": 2810,
      "illing": 2811,
      "ĠSp": 2812,
      "Ġrout": 2813,
      "Ġmorning": 2814,
      "bed": 2815,
      "ĠIM": 2816,
      "Ġconsidered": 2817,
      "Ġmistakes": 2818,
      "Ġcloser": 2819,
      "aly": 2820,
      "Ġarea": 2821,
      "Ġrules": 2822,
      "Ġhelpful": 2823,
      "VER": 2824,
      "oned": 2825,
      "Ġdecisions": 2826,
      "Ġirr": 2827,
      "Ġslowly": 2828,
      "Ġ.": 2829,
      "Ġsurprised": 2830,
      "Ġcircum": 2831,
      "Ġden": 2832,
      "Ġanger": 2833,
      "ĠPlease": 2834,
      "Ġcreat": 2835,
      "arr": 2836,
      "Ġnor": 2837,
      "Ġsuff": 2838,
      "Ġcrush": 2839,
      "Ġfacebook": 2840,
      "Ġpassion": 2841,
      "Ġcalm": 2842,
      "Ġsitting": 2843,
      "vote": 2844,
      "'.": 2845,
      "Ġfour": 2846,
      "ĠWow": 2847,
      "Ġpaying": 2848,
      "Ġmessages": 2849,
      "Ġna": 2850,
      "Ġposted": 2851,
      "Ġdumped": 2852,
      "gressive": 2853,
      "Ġlarge": 2854,
      "Ġmaintain": 2855,
      "rib": 2856,
      "Ġchem": 2857,
      "Ġjoke": 2858,
      "Ġbrought": 2859,
      "Ġindivid": 2860,
      "Ġcouples": 2861,
      "Ġ:(": 2862,
      "Ġnecessary": 2863,
      "Ġbigger": 2864,
      "Ġroad": 2865,
      "Ġhoping": 2866,
      "Ġnone": 2867,
      "Ġpractice": 2868,
      "Ġdetails": 2869,
      "ital": 2870,
      "Ġdoor": 2871,
      "anted": 2872,
      "Ġbeg": 2873,
      "Ġdisc": 2874,
      "Ġwonderful": 2875,
      "If": 2876,
      "Ġart": 2877,
      "ĠBest": 2878,
      "Ġhurts": 2879,
      "ES": 2880,
      "Ġparties": 2881,
      "Ġ50": 2882,
      "Ġconnection": 2883,
      "Ġheal": 2884,
      "Ġloss": 2885,
      "Ġexer": 2886,
      "Ġobject": 2887,
      "Ġpregnant": 2888,
      "Ġfully": 2889,
      "ified": 2890,
      "dition": 2891,
      "Ġprotect": 2892,
      "Ġcudd": 2893,
      "ished": 2894,
      "Ġkissing": 2895,
      "Ġtreated": 2896,
      "Ġconversations": 2897,
      "Ġavailable": 2898,
      "Ġemp": 2899,
      "Hey": 2900,
      "Ġtrans": 2901,
      "Ġpissed": 2902,
      "Ġpublic": 2903,
      "Ġvideo": 2904,
      "bs": 2905,
      "Ġsick": 2906,
      "ender": 2907,
      "Ġdeg": 2908,
      "Ġhelping": 2909,
      "esteem": 2910,
      "Ġwaste": 2911,
      "ole": 2912,
      "ction": 2913,
      "Ġidiot": 2914,
      "Ġincredibly": 2915,
      "ĠHope": 2916,
      "ĠEDIT": 2917,
      "Ġprofessional": 2918,
      "Ġbri": 2919,
      "ability": 2920,
      "Ġmiserable": 2921,
      "Ġpsycholog": 2922,
      "Ġdoctor": 2923,
      "Ġtre": 2924,
      "Ġmult": 2925,
      "Ġodd": 2926,
      "Ġphot": 2927,
      "ĠDude": 2928,
      "iced": 2929,
      "Ġvo": 2930,
      "even": 2931,
      "ories": 2932,
      "oming": 2933,
      "Ġtrip": 2934,
      "Ġprofile": 2935,
      "Ġbecomes": 2936,
      "old": 2937,
      "pes": 2938,
      "val": 2939,
      "ĠFuck": 2940,
      "ceed": 2941,
      "Ġdeserves": 2942,
      "ĠEveryone": 2943,
      "Ġsmell": 2944,
      "Ġlay": 2945,
      "ĠReally": 2946,
      "Ġapologize": 2947,
      "levant": 2948,
      "Ġliter": 2949,
      "Ġkick": 2950,
      "Ġwhenever": 2951,
      "Ġideas": 2952,
      "ler": 2953,
      "Ġdumb": 2954,
      "verage": 2955,
      "Ġaspect": 2956,
      "Ġcomput": 2957,
      "Ġmatters": 2958,
      "Ġtotal": 2959,
      "Ġcompliment": 2960,
      "Ġseparate": 2961,
      "RE": 2962,
      "Ġsumm": 2963,
      "Ġsen": 2964,
      "Ġwall": 2965,
      "Ġasks": 2966,
      "âĢĶ": 2967,
      "Ġrejection": 2968,
      "Ġdrugs": 2969,
      "Ġreci": 2970,
      "lier": 2971,
      "ossible": 2972,
      "ancy": 2973,
      "Ġbadly": 2974,
      "Ġcharact": 2975,
      "uctive": 2976,
      "Ġwed": 2977,
      "angu": 2978,
      "Ġconfront": 2979,
      "ugg": 2980,
      "Ġcompromise": 2981,
      "Ġcircumst": 2982,
      "dy": 2983,
      "Ġcross": 2984,
      "Ġreb": 2985,
      "Ġconse": 2986,
      "aring": 2987,
      "Ġnote": 2988,
      "pping": 2989,
      "reddit": 2990,
      "Ġdaught": 2991,
      "astic": 2992,
      "Ġsolution": 2993,
      "Ġintimate": 2994,
      "Ġadvant": 2995,
      "uts": 2996,
      "Ġhug": 2997,
      "Ġalcohol": 2998,
      "Ġindividual": 2999,
      "ster": 3000,
      "alent": 3001,
      "Ġscenari": 3002,
      "Ġlink": 3003,
      "Ġlived": 3004,
      "cons": 3005,
      "Ġser": 3006,
      "Ġideal": 3007,
      "Ġbelief": 3008,
      "Ġcity": 3009,
      "Ġsix": 3010,
      "Ġimprove": 3011,
      "Ġug": 3012,
      "ĠRight": 3013,
      "Ġpurp": 3014,
      "Ġdest": 3015,
      "irm": 3016,
      "Ġspot": 3017,
      "Ġvers": 3018,
      "viously": 3019,
      "Ġaddress": 3020,
      "Ġcountry": 3021,
      "Ġactivities": 3022,
      "ĠActually": 3023,
      "Ġsettle": 3024,
      "Ġintimacy": 3025,
      "Ġaffair": 3026,
      "Ġmusic": 3027,
      "ars": 3028,
      "ĠWor": 3029,
      "Ġindepend": 3030,
      "Ġnaturally": 3031,
      "gard": 3032,
      "Ġsal": 3033,
      "Ġblack": 3034,
      "mission": 3035,
      "\"?": 3036,
      "Ġlangu": 3037,
      "udes": 3038,
      "Ġends": 3039,
      "Ġmiddle": 3040,
      "Ġpenis": 3041,
      "ĠPersonally": 3042,
      "Ġdespite": 3043,
      "Ġlimit": 3044,
      "Ġnature": 3045,
      "roll": 3046,
      "Ġkeeps": 3047,
      "itch": 3048,
      "Ġanywhere": 3049,
      "Ġdisrespect": 3050,
      "Ġintentions": 3051,
      "Ġhide": 3052,
      "DR": 3053,
      "Ġfool": 3054,
      "Ġridiculous": 3055,
      "Ġfive": 3056,
      "Ġhappier": 3057,
      "Ġlooked": 3058,
      "Ġlonely": 3059,
      "ray": 3060,
      "Ġmass": 3061,
      "Ġcard": 3062,
      "Ġstre": 3063,
      "ication": 3064,
      "Ġnearly": 3065,
      "Ġ25": 3066,
      "Ġcaring": 3067,
      "ĠGF": 3068,
      "Ġwriting": 3069,
      "cks": 3070,
      "Ġresol": 3071,
      "Ġprepared": 3072,
      "mon": 3073,
      "Ġhorm": 3074,
      "Ġability": 3075,
      "Ġ21": 3076,
      "Ġoblig": 3077,
      "Ġconvince": 3078,
      "?)": 3079,
      "Ġ$": 3080,
      "atu": 3081,
      "ency": 3082,
      "Ġgoal": 3083,
      "long": 3084,
      "Ġcomplic": 3085,
      "Ġtopic": 3086,
      "Ġson": 3087,
      "Ġexclus": 3088,
      "Ġgift": 3089,
      "Ġhint": 3090,
      "Ġrunning": 3091,
      "EN": 3092,
      "iety": 3093,
      "ĠX": 3094,
      "lying": 3095,
      "ĠEs": 3096,
      "Ġfigured": 3097,
      "Ġpursu": 3098,
      "ĠGirls": 3099,
      "ĠInt": 3100,
      "Ġagreed": 3101,
      "Ġdirectly": 3102,
      "Ġadvantage": 3103,
      "ences": 3104,
      "Ġapparently": 3105,
      "res": 3106,
      "Ġadm": 3107,
      "Ġrape": 3108,
      "Ġaddict": 3109,
      "Ġcurrently": 3110,
      "Ġmotiv": 3111,
      "Ġcompatible": 3112,
      "Ġhung": 3113,
      "Ġpainful": 3114,
      "Ġdaughter": 3115,
      "bo": 3116,
      "Ġaverage": 3117,
      "Ġpet": 3118,
      "Ġhers": 3119,
      "aging": 3120,
      "Ġquit": 3121,
      "Ġballs": 3122,
      "Ġgenuinely": 3123,
      "Ġtired": 3124,
      "Ġchanging": 3125,
      "ĠIm": 3126,
      "Ġcontinu": 3127,
      "Ġallowed": 3128,
      "Ġwedding": 3129,
      "IS": 3130,
      "Ġeating": 3131,
      "Ġmatch": 3132,
      "Ġdemand": 3133,
      "Ġcontext": 3134,
      "ĠLove": 3135,
      "Ġregular": 3136,
      "ĠOtherwise": 3137,
      "ĠRel": 3138,
      "Ġstandards": 3139,
      "Ġstudent": 3140,
      "__": 3141,
      "Ġ#": 3142,
      "ĠOb": 3143,
      "Ġground": 3144,
      "Ġjerk": 3145,
      "Ġlanguage": 3146,
      "with": 3147,
      "Ġmate": 3148,
      "She": 3149,
      "mas": 3150,
      "uc": 3151,
      "ionally": 3152,
      "hird": 3153,
      "gra": 3154,
      "imp": 3155,
      "ĠHaving": 3156,
      "Ġfulf": 3157,
      "Ġcook": 3158,
      "Ġsuspect": 3159,
      "Ġwrote": 3160,
      "Ġhopefully": 3161,
      "Ġcarry": 3162,
      "reen": 3163,
      "Ġchose": 3164,
      "Ġvisit": 3165,
      "Ġreligious": 3166,
      "Ġseek": 3167,
      "using": 3168,
      "Ġparticularly": 3169,
      "Ġimpossible": 3170,
      "ĠNothing": 3171,
      "Ġplanning": 3172,
      "Ġ15": 3173,
      "rences": 3174,
      "sitive": 3175,
      "Ġcurious": 3176,
      "onic": 3177,
      "ĠAb": 3178,
      "Ġfeed": 3179,
      "Ġ19": 3180,
      "Ġcaught": 3181,
      "Ġearlier": 3182,
      "Ġsuddenly": 3183,
      "It": 3184,
      "Ġlady": 3185,
      "ĠNever": 3186,
      "Ġcondoms": 3187,
      "Ġboundaries": 3188,
      "ĠHis": 3189,
      "iles": 3190,
      "Ġhadn": 3191,
      "order": 3192,
      "Ġobsess": 3193,
      "Ġembarr": 3194,
      "peri": 3195,
      "Ġfaith": 3196,
      "Ġwhite": 3197,
      "UA": 3198,
      "eric": 3199,
      "ortion": 3200,
      "Ġcomputer": 3201,
      "Ġbag": 3202,
      "Ġshop": 3203,
      "Ġsooner": 3204,
      "ĠBasically": 3205,
      "arc": 3206,
      "Ġgotta": 3207,
      "Ġlol": 3208,
      "Ġsetting": 3209,
      "Ġugly": 3210,
      "Ġnoticed": 3211,
      "itten": 3212,
      "oh": 3213,
      "uate": 3214,
      "Ġsli": 3215,
      "cknow": 3216,
      "Ġsplit": 3217,
      "Ġjealousy": 3218,
      "Ġpiece": 3219,
      "erm": 3220,
      "chn": 3221,
      "Ġupon": 3222,
      "Ġnobody": 3223,
      "Ġprovide": 3224,
      "Ġclingy": 3225,
      "Ġmulti": 3226,
      "don": 3227,
      "fuck": 3228,
      "Ġdead": 3229,
      "Ġharsh": 3230,
      "Ġmovies": 3231,
      "Ġanxiety": 3232,
      "Ġdegree": 3233,
      "inct": 3234,
      "Ġdesperate": 3235,
      "Ġembarrass": 3236,
      "dr": 3237,
      "Ġdifferently": 3238,
      "Ġgrowing": 3239,
      "ĠUnfortunately": 3240,
      "Ġfrequ": 3241,
      "bing": 3242,
      "ider": 3243,
      "istry": 3244,
      "osing": 3245,
      "Ġpassive": 3246,
      "Ġspeaking": 3247,
      "Ġsuccessful": 3248,
      "atter": 3249,
      "Ġsyste": 3250,
      "Ġconvin": 3251,
      "ĠTrust": 3252,
      "ists": 3253,
      "Ġending": 3254,
      "Ġharm": 3255,
      "Ġve": 3256,
      "Ġwan": 3257,
      "ator": 3258,
      "hood": 3259,
      "Ġexpecting": 3260,
      "Ġesteem": 3261,
      "let": 3262,
      "arch": 3263,
      "Ġwont": 3264,
      "Ġsociety": 3265,
      "Ġtypes": 3266,
      "bies": 3267,
      "Ġinde": 3268,
      "Ġmag": 3269,
      "Ġsees": 3270,
      "Ġslightly": 3271,
      "Ġgender": 3272,
      "ots": 3273,
      "ĠSec": 3274,
      "Ġstrange": 3275,
      "Ġstatement": 3276,
      "low": 3277,
      "ĠQ": 3278,
      "think": 3279,
      "Ġwhom": 3280,
      "lict": 3281,
      "Ġpun": 3282,
      "Ġproject": 3283,
      "Ġbasis": 3284,
      "althy": 3285,
      "Ġgrand": 3286,
      "Ġwalking": 3287,
      "ĠInstead": 3288,
      "Ġmix": 3289,
      "Ġgri": 3290,
      "Ġhonesty": 3291,
      "Ġoriginal": 3292,
      "ule": 3293,
      "hered": 3294,
      "Ġfinds": 3295,
      "Ġruin": 3296,
      "Ġrough": 3297,
      "Ġpussy": 3298,
      "Ġacknow": 3299,
      "Ġcy": 3300,
      "Ġcircumstances": 3301,
      "bag": 3302,
      "ingly": 3303,
      "Ġprevent": 3304,
      "Ġident": 3305,
      "Ġexperienced": 3306,
      "Ġcareful": 3307,
      "ĠAgain": 3308,
      "ĠEspecially": 3309,
      ".**": 3310,
      "Ġoh": 3311,
      "vert": 3312,
      "Ġcost": 3313,
      "Ġbecoming": 3314,
      "Ġfriendships": 3315,
      "Ġboring": 3316,
      "Ġpurpose": 3317,
      "Ġonto": 3318,
      "Ġoral": 3319,
      "ears": 3320,
      "Ġacceptable": 3321,
      "Ġskills": 3322,
      "Ġlunch": 3323,
      "ĠNO": 3324,
      "Ġbiggest": 3325,
      "Ġengage": 3326,
      "Ġvoice": 3327,
      "Ġant": 3328,
      "Ġweak": 3329,
      "Ġpol": 3330,
      "mental": 3331,
      "Ġchicks": 3332,
      "Ġpromise": 3333,
      "Ġener": 3334,
      "Ġsubreddit": 3335,
      "Ġorgasm": 3336,
      "bid": 3337,
      "chi": 3338,
      "pret": 3339,
      "ancing": 3340,
      "Ġmode": 3341,
      "Ġkinds": 3342,
      "ser": 3343,
      "Ġaside": 3344,
      "Ġfavorite": 3345,
      "Ġexercise": 3346,
      "ĠThing": 3347,
      "Ġthreaten": 3348,
      "ĠObviously": 3349,
      "ric": 3350,
      "icial": 3351,
      "friends": 3352,
      "?!": 3353,
      "Ġlab": 3354,
      "arant": 3355,
      "Ġappropriate": 3356,
      "aa": 3357,
      "Ġfing": 3358,
      "Ġexpected": 3359,
      "Ġmultiple": 3360,
      "ED": 3361,
      "ev": 3362,
      "your": 3363,
      "Ġer": 3364,
      "Ġtemp": 3365,
      "Ġrarely": 3366,
      "Ġconsequ": 3367,
      "over": 3368,
      "Ġbeat": 3369,
      "ĠChe": 3370,
      "Ġspecifically": 3371,
      "Ġbenefit": 3372,
      "ky": 3373,
      "ĠPlus": 3374,
      "Ġrole": 3375,
      "Ġsuic": 3376,
      "Ġintention": 3377,
      "ĠGod": 3378,
      "ĠOnly": 3379,
      "Ġmanipulative": 3380,
      "Ġdestro": 3381,
      "Ġfra": 3382,
      "Ġshut": 3383,
      "Ġaggressive": 3384,
      "Ġflag": 3385,
      "Ġdescribe": 3386,
      "Ġliterally": 3387,
      "Ġda": 3388,
      "Ġur": 3389,
      "Ġclot": 3390,
      "Ġhighly": 3391,
      "Ġvalues": 3392,
      "hose": 3393,
      "Ġchoices": 3394,
      "ĠStart": 3395,
      "Ġbase": 3396,
      "Ġdir": 3397,
      "Ġgoals": 3398,
      "ĠHey": 3399,
      "back": 3400,
      "Ġworrying": 3401,
      "Ġpath": 3402,
      "Ġvagin": 3403,
      "Ġscenario": 3404,
      "iance": 3405,
      "Ġmissed": 3406,
      "hetic": 3407,
      "Ġattached": 3408,
      "Ġcontrolling": 3409,
      "Ġbringing": 3410,
      "Ġshes": 3411,
      "Ġmanner": 3412,
      "ĠRA": 3413,
      "Ġclasses": 3414,
      "AY": 3415,
      "ili": 3416,
      "Ġroommate": 3417,
      "Ġver": 3418,
      "Ġbored": 3419,
      "Ġdeath": 3420,
      "ilt": 3421,
      "Ġsched": 3422,
      "Ġpha": 3423,
      "Ġenv": 3424,
      "Ġsport": 3425,
      "attract": 3426,
      "dra": 3427,
      "off": 3428,
      "Ġbal": 3429,
      "Ġreach": 3430,
      "Ġbenefits": 3431,
      "Ġletter": 3432,
      "ĠSecond": 3433,
      "TF": 3434,
      "Ġdance": 3435,
      "Ġguarant": 3436,
      "ĠNe": 3437,
      "ĠWhatever": 3438,
      "Ġblah": 3439,
      "Ġtrick": 3440,
      "Ġirre": 3441,
      "Ġinitiate": 3442,
      "Ġactivity": 3443,
      "Ġstage": 3444,
      "ĠWait": 3445,
      "ĠHell": 3446,
      "really": 3447,
      "Ġfollowing": 3448,
      "tom": 3449,
      "erv": 3450,
      "Ġconclus": 3451,
      "Ġcapable": 3452,
      "ased": 3453,
      "Ġclar": 3454,
      "Ġsuggestion": 3455,
      "Ġsigns": 3456,
      "Ġhaha": 3457,
      "ading": 3458,
      "Ġannoying": 3459,
      "wo": 3460,
      "hold": 3461,
      "Ġguessing": 3462,
      "Ġcourt": 3463,
      "Ġenergy": 3464,
      "boy": 3465,
      "ĠThose": 3466,
      "Ġste": 3467,
      "Ġarr": 3468,
      "Ġattack": 3469,
      "Ġrelative": 3470,
      "Ġoccur": 3471,
      "ĠMan": 3472,
      "Ġanswers": 3473,
      "iest": 3474,
      "Ġstatus": 3475,
      "Ġrecognize": 3476,
      "Ġchemistry": 3477,
      "Ġund": 3478,
      "Ġprove": 3479,
      "istance": 3480,
      "ĠSomething": 3481,
      "Ġreligion": 3482,
      "form": 3483,
      "Ġstories": 3484,
      "Ġneedy": 3485,
      "Ġcow": 3486,
      "Ġlies": 3487,
      "Ġ:-": 3488,
      "Ġawful": 3489,
      "Ġbothers": 3490,
      "gher": 3491,
      "Ġbat": 3492,
      "Ġego": 3493,
      "...\"": 3494,
      "Ġimpression": 3495,
      "Ġcommunity": 3496,
      "Ġminute": 3497,
      "Ġresponses": 3498,
      "Ġgrab": 3499,
      "Ġsystem": 3500,
      "UT": 3501,
      "Ġsci": 3502,
      "Ġgym": 3503,
      "ference": 3504,
      "Ġactive": 3505,
      "Ġrude": 3506,
      "Ġbitter": 3507,
      "Ġcareer": 3508,
      "ulation": 3509,
      "Ġflowers": 3510,
      "VE": 3511,
      "ĠPl": 3512,
      "Ġexplan": 3513,
      "Ġdraw": 3514,
      "Ġskin": 3515,
      "Ġjudg": 3516,
      "relationship": 3517,
      "What": 3518,
      "date": 3519,
      "gg": 3520,
      "Ġknowledge": 3521,
      "Ġapartment": 3522,
      "Ġintelligent": 3523,
      "Ġhol": 3524,
      "Ġputs": 3525,
      "Ġsou": 3526,
      "Ġunhe": 3527,
      "who": 3528,
      "Ġfill": 3529,
      "men": 3530,
      "Ġhabit": 3531,
      "ays": 3532,
      "hod": 3533,
      "Ġanybody": 3534,
      "Ġinvite": 3535,
      "Ġcounselor": 3536,
      "Ġwind": 3537,
      "Ġsuggested": 3538,
      "Ġintrodu": 3539,
      "Ġblock": 3540,
      "Ġnormally": 3541,
      "Ġdrag": 3542,
      "Ġevidence": 3543,
      "Ġengaged": 3544,
      "Ġlied": 3545,
      "ĠFace": 3546,
      "Ġtechn": 3547,
      "Ġhobbies": 3548,
      "!)": 3549,
      "LY": 3550,
      "Ġten": 3551,
      "Ġcamp": 3552,
      "Ġexcus": 3553,
      "ĠWhere": 3554,
      "ĠMore": 3555,
      "ĠRemember": 3556,
      "ilities": 3557,
      "erial": 3558,
      "Ġunw": 3559,
      "Ġposting": 3560,
      "Ġbirthday": 3561,
      "Ġ+": 3562,
      "Ġsite": 3563,
      "arious": 3564,
      "okes": 3565,
      "list": 3566,
      "Ġassumpt": 3567,
      "Ġpattern": 3568,
      "Ġpatient": 3569,
      "Ġmonogamous": 3570,
      "mail": 3571,
      "Ġpage": 3572,
      "Ġmanage": 3573,
      "Ġbooks": 3574,
      "proc": 3575,
      "Ġthird": 3576,
      "Ġcock": 3577,
      "idel": 3578,
      "ventually": 3579,
      "Ġdrinks": 3580,
      "Ġinsecurity": 3581,
      "Ġstudy": 3582,
      "Ġshoes": 3583,
      "Ġfinancial": 3584,
      "Ġsummer": 3585,
      "sure": 3586,
      "iding": 3587,
      "Ġargue": 3588,
      "Ġsharing": 3589,
      "Ġwanna": 3590,
      "Ġlocal": 3591,
      "Ġboyfriends": 3592,
      "aming": 3593,
      "Ġfoot": 3594,
      "Ġequal": 3595,
      "Ġtreating": 3596,
      "ĠMove": 3597,
      "izes": 3598,
      "Ġcrying": 3599,
      "Ġ16": 3600,
      "iny": 3601,
      "rif": 3602,
      "ĠPUA": 3603,
      "Ġtries": 3604,
      "Ġclaim": 3605,
      "Ġbuddy": 3606,
      "Ġca": 3607,
      "Ġ24": 3608,
      "Ġessent": 3609,
      "Ġ17": 3610,
      "asonable": 3611,
      "Ġteen": 3612,
      "ield": 3613,
      "Ġsolve": 3614,
      "Ġevol": 3615,
      "girlfriend": 3616,
      "mo": 3617,
      "vise": 3618,
      "Ġmethod": 3619,
      "Ġtexts": 3620,
      "ru": 3621,
      "ending": 3622,
      "Ġregul": 3623,
      "Ġfalling": 3624,
      "lcome": 3625,
      "Ġyell": 3626,
      "Ġinfatu": 3627,
      "Ġfantasy": 3628,
      "Ġprivate": 3629,
      "ination": 3630,
      "Ġbreat": 3631,
      "Ġrelated": 3632,
      "ption": 3633,
      "Ġ40": 3634,
      "Ġculture": 3635,
      "Ġultimately": 3636,
      "ises": 3637,
      "Ġeverybody": 3638,
      "ĠLea": 3639,
      "Ġconflict": 3640,
      "Ġrock": 3641,
      "ĠTHE": 3642,
      "urd": 3643,
      "Ġparts": 3644,
      "Ġsolid": 3645,
      "Ġcaused": 3646,
      "iet": 3647,
      "ĠDe": 3648,
      "Ġride": 3649,
      "Ġinsane": 3650,
      "Ġreflect": 3651,
      "cu": 3652,
      "Ġbare": 3653,
      "Ġlame": 3654,
      "Ġdie": 3655,
      "ĠThings": 3656,
      "aking": 3657,
      "ĠBF": 3658,
      "Ġbothered": 3659,
      "Ġ12": 3660,
      "Ġflaw": 3661,
      "Ġfighting": 3662,
      "love": 3663,
      "lex": 3664,
      "illion": 3665,
      "ured": 3666,
      "Ġinsight": 3667,
      "Ġstandard": 3668,
      "Ġreciproc": 3669,
      "Ġshared": 3670,
      "Ġcases": 3671,
      "Ġjoin": 3672,
      "Ġencourage": 3673,
      "llen": 3674,
      "Ġhyp": 3675,
      "Ġcomplicated": 3676,
      "Ġdirty": 3677,
      "ST": 3678,
      "Ġtomor": 3679,
      "Ġwritten": 3680,
      "Ġromance": 3681,
      "Ġleads": 3682,
      "Ġestab": 3683,
      "ural": 3684,
      "ĠCon": 3685,
      "Ġvol": 3686,
      "Ġnews": 3687,
      "Ġaccident": 3688,
      "Ġopinions": 3689,
      "Ġtomorrow": 3690,
      "verse": 3691,
      "Ġunlike": 3692,
      "ĠEventually": 3693,
      "Ġshower": 3694,
      "attractive": 3695,
      "**.": 3696,
      "ribly": 3697,
      "Ġles": 3698,
      "style": 3699,
      "Ġprogress": 3700,
      "Ġlegit": 3701,
      "Ġsour": 3702,
      "Ġcheater": 3703,
      "Ġexcited": 3704,
      "ĠAmeric": 3705,
      "cha": 3706,
      "hether": 3707,
      "Ġce": 3708,
      "Ġcant": 3709,
      "ization": 3710,
      "ĠAlthough": 3711,
      "Ġstrugg": 3712,
      "ankly": 3713,
      "Ġdisappoint": 3714,
      "ĠSTD": 3715,
      "ĠAND": 3716,
      "bits": 3717,
      "Ġaut": 3718,
      "Ġtalks": 3719,
      "Ġmajority": 3720,
      "Ġdaily": 3721,
      "Ġtroll": 3722,
      "Ġbond": 3723,
      "Ġdig": 3724,
      "ream": 3725,
      "ball": 3726,
      "Ġair": 3727,
      "Ġdee": 3728,
      "lied": 3729,
      "Ġinsist": 3730,
      "Ġrebound": 3731,
      "Ġenjoying": 3732,
      "Ġsympat": 3733,
      "Ġunreasonable": 3734,
      "Ġdress": 3735,
      "Ġcust": 3736,
      "Ġcol": 3737,
      "cked": 3738,
      "Ġadvise": 3739,
      "Ġbetray": 3740,
      "OR": 3741,
      "sis": 3742,
      "Ġthus": 3743,
      "Ġanyways": 3744,
      "Ġtravel": 3745,
      "hand": 3746,
      "Ġsometime": 3747,
      "Ġgrown": 3748,
      "Ġblind": 3749,
      "Ġdirection": 3750,
      "itive": 3751,
      "Ġshape": 3752,
      "Ġinstinct": 3753,
      "Ġcharacter": 3754,
      "Ġ,": 3755,
      "Ġfas": 3756,
      "Ġstore": 3757,
      "Ġboys": 3758,
      "Ġslut": 3759,
      "Ġmoral": 3760,
      "ĠRelationship": 3761,
      "Ġexcuses": 3762,
      "rit": 3763,
      "Ġtoward": 3764,
      "ribut": 3765,
      "ishing": 3766,
      "Ġtable": 3767,
      "because": 3768,
      "Ġmaterial": 3769,
      "Ġcreate": 3770,
      "Ġhumor": 3771,
      "Ġirrational": 3772,
      "Ġdanger": 3773,
      "Ġhitting": 3774,
      "Ġpursuing": 3775,
      "ĠFacebook": 3776,
      "Ġtill": 3777,
      "initely": 3778,
      "Ġwater": 3779,
      "Ġfiance": 3780,
      "Ġprogra": 3781,
      "urities": 3782,
      "Ġsacri": 3783,
      "angers": 3784,
      "Ġbox": 3785,
      "Ġunhealthy": 3786,
      "UC": 3787,
      "can": 3788,
      "nice": 3789,
      "Ġtor": 3790,
      "Ġactively": 3791,
      "Ġunfair": 3792,
      "Ġexplanation": 3793,
      "ns": 3794,
      "Ġmentally": 3795,
      "Ġsensitive": 3796,
      "Ġsacrif": 3797,
      "front": 3798,
      "put": 3799,
      "hey": 3800,
      "Ġburn": 3801,
      "Ġrequest": 3802,
      "Ġstable": 3803,
      "Ġhigher": 3804,
      "Ġsusp": 3805,
      "Ġleaves": 3806,
      "Ġdoesnt": 3807,
      "Ġdistract": 3808,
      "Ġcrus": 3809,
      "Ġsupportive": 3810,
      "ĠHaha": 3811,
      "Ġquality": 3812,
      "Ġincluding": 3813,
      "ceived": 3814,
      "Ġcli": 3815,
      "Ġmemor": 3816,
      "Ġunfortunately": 3817,
      "soci": 3818,
      "Ġbars": 3819,
      "Ġregularly": 3820,
      "ĠIS": 3821,
      "entle": 3822,
      "Ġrecord": 3823,
      "mun": 3824,
      "Ġanim": 3825,
      "amn": 3826,
      "Ġaccomp": 3827,
      "Ġnumb": 3828,
      "Ġrefer": 3829,
      "Ġindependent": 3830,
      "actly": 3831,
      "ĠGuys": 3832,
      "stood": 3833,
      "hic": 3834,
      "Ġconcept": 3835,
      "Ġinsecurities": 3836,
      "Ġsteps": 3837,
      "Ġbuilding": 3838,
      "night": 3839,
      "hie": 3840,
      "Ġplat": 3841,
      "Ġextent": 3842,
      "Ġdeeply": 3843,
      "Ġdestroy": 3844,
      "Ġbang": 3845,
      "Ġhey": 3846,
      "Ġbeer": 3847,
      "ĠCall": 3848,
      "Ġphase": 3849,
      "ET": 3850,
      "males": 3851,
      "Ġtoler": 3852,
      "hange": 3853,
      "ĠHmm": 3854,
      "Ġuseful": 3855,
      "maybe": 3856,
      "ĠÌ": 3857,
      "Ġevents": 3858,
      "Oh": 3859,
      "Ġcri": 3860,
      "Ġcomb": 3861,
      "Ġarm": 3862,
      "Ġlets": 3863,
      "ĠProbably": 3864,
      "Ġbeliefs": 3865,
      "job": 3866,
      "Ġcompet": 3867,
      "Ġacqu": 3868,
      "Ġbreaks": 3869,
      "Ġstayed": 3870,
      "Ġdriving": 3871,
      "idelity": 3872,
      "bal": 3873,
      "Ġfli": 3874,
      "Ġdudes": 3875,
      "oty": 3876,
      "Ġrelate": 3877,
      "ĠBoth": 3878,
      "Ġfake": 3879,
      "Ġrare": 3880,
      "Ġstrongly": 3881,
      "Ġforgot": 3882,
      "Ġunc": 3883,
      "Ġlesson": 3884,
      "Ġsexuality": 3885,
      "Ġignoring": 3886,
      "going": 3887,
      "ero": 3888,
      "sence": 3889,
      "rase": 3890,
      "uel": 3891,
      "Ġclue": 3892,
      "Ġawhile": 3893,
      "Ġsignals": 3894,
      "ĠThough": 3895,
      "Ġafford": 3896,
      "Ġhobby": 3897,
      "Ġclothes": 3898,
      "Ġpicking": 3899,
      "Ġdev": 3900,
      "ĠMen": 3901,
      "Ġchallen": 3902,
      "Ġhearing": 3903,
      "Ġintellect": 3904,
      "Ġconsequences": 3905,
      "This": 3906,
      "ĠâĢ": 3907,
      "agn": 3908,
      "ĠSomeone": 3909,
      "Ġwat": 3910,
      "onment": 3911,
      "Ġcondition": 3912,
      "being": 3913,
      "Ġraise": 3914,
      "Ġvict": 3915,
      "!!!": 3916,
      "Ġviews": 3917,
      "LLY": 3918,
      "Ġexclusive": 3919,
      "Ġconvinced": 3920,
      ".,": 3921,
      "Ġsize": 3922,
      "Ġwake": 3923,
      "Ġpack": 3924,
      "ats": 3925,
      "Ġrese": 3926,
      "sexual": 3927,
      "Ġanaly": 3928,
      "ĠAnother": 3929,
      "ĠCould": 3930,
      "Ġstrangers": 3931,
      "Ġshallow": 3932,
      "Ġdivorced": 3933,
      "Ġdesires": 3934,
      "Ġaltern": 3935,
      "ĠAgreed": 3936,
      "cul": 3937,
      "Ġrelevant": 3938,
      "raph": 3939,
      "Ġeduc": 3940,
      "Ġbiolog": 3941,
      "ience": 3942,
      "Ġowe": 3943,
      "Ġlower": 3944,
      "ĠMany": 3945,
      "ĠNext": 3946,
      "ager": 3947,
      "Ġroll": 3948,
      "ĠUp": 3949,
      "Ġturning": 3950,
      "Ġbasic": 3951,
      "Ġinitial": 3952,
      "Ġlawy": 3953,
      "know": 3954,
      "xting": 3955,
      "Ġforth": 3956,
      "Ġlifestyle": 3957,
      "interest": 3958,
      "Ġtouching": 3959,
      "Ġdescribed": 3960,
      "Ġcircle": 3961,
      "ĠÌģ": 3962,
      "Ġrent": 3963,
      "cep": 3964,
      "ĠWas": 3965,
      "Ġpoly": 3966,
      "ĠNE": 3967,
      "ĠLearn": 3968,
      "Ġfinish": 3969,
      "Ġinvolve": 3970,
      "uction": 3971,
      "Ġpleasure": 3972,
      "Ġtonight": 3973,
      "Ġdidnt": 3974,
      "Ġacts": 3975,
      "Ġfemales": 3976,
      "ups": 3977,
      "ĠStay": 3978,
      "Ġpregnancy": 3979,
      "Ġdouchebag": 3980,
      "Ġindeed": 3981,
      "rant": 3982,
      "Ġgentle": 3983,
      "Ġpea": 3984,
      "Ġexes": 3985,
      "Ġseeking": 3986,
      "olate": 3987,
      "Ġpaper": 3988,
      "Ġbought": 3989,
      "Ġcent": 3990,
      "Ġpants": 3991,
      "eng": 3992,
      "uses": 3993,
      "Ġafterwards": 3994,
      "ĠUS": 3995,
      "Ġdream": 3996,
      "Ġholid": 3997,
      "Ġsuspic": 3998,
      "etter": 3999,
      "ĠCom": 4000,
      "ĠLDR": 4001,
      "Ġinsult": 4002,
      "experi": 4003,
      "Ġdamage": 4004,
      "Ġoccasionally": 4005,
      "mind": 4006,
      "Ġempat": 4007,
      "imate": 4008,
      "Ġpushing": 4009,
      "Ġteach": 4010,
      "Ġunivers": 4011,
      "Ġenvir": 4012,
      "Ġsoul": 4013,
      "Ġgro": 4014,
      "ives": 4015,
      "Ġprod": 4016,
      "Ġrub": 4017,
      "Ġstronger": 4018,
      "Ġbehaviour": 4019,
      "Ġproud": 4020,
      "Ġfresh": 4021,
      "ĠHopefully": 4022,
      "good": 4023,
      "Ġadop": 4024,
      "Ġdefinition": 4025,
      "bian": 4026,
      "Ġya": 4027,
      "see": 4028,
      "Ġherpes": 4029,
      "Ġforced": 4030,
      "Ġstyle": 4031,
      "olar": 4032,
      "ĠPut": 4033,
      "weight": 4034,
      "Ġsuggesting": 4035,
      "Ġkissed": 4036,
      "ĠOkay": 4037,
      "ĠShould": 4038,
      "cepting": 4039,
      "Ġep": 4040,
      "Ġ22": 4041,
      "Ġapply": 4042,
      "ĠUs": 4043,
      "ivity": 4044,
      "Ġmedical": 4045,
      "Ġlegal": 4046,
      "sides": 4047,
      "Ġfirm": 4048,
      "Ġreass": 4049,
      "sex": 4050,
      "ĠTwo": 4051,
      "Ġelsewhere": 4052,
      "onsider": 4053,
      "Ġencount": 4054,
      "Ġcover": 4055,
      "aint": 4056,
      "ĠEn": 4057,
      "Ġviole": 4058,
      "ĠChristmas": 4059,
      "Ġinno": 4060,
      "Ġcheap": 4061,
      "Ġnaked": 4062,
      "ĠLeave": 4063,
      "Ġbarely": 4064,
      "hil": 4065,
      "Ġwhore": 4066,
      "Ġaccus": 4067,
      "Ġplayed": 4068,
      "Ġdepending": 4069,
      "Ġfailed": 4070,
      "face": 4071,
      "lu": 4072,
      "Ġdifferences": 4073,
      "Ġinteraction": 4074,
      "OUR": 4075,
      "when": 4076,
      "infor": 4077,
      "Ġped": 4078,
      "ĠSH": 4079,
      "iling": 4080,
      "Ġunattractive": 4081,
      "Ġimpress": 4082,
      "Ġpotentially": 4083,
      "light": 4084,
      "stit": 4085,
      "Ġraised": 4086,
      "Ġsett": 4087,
      "Ġminor": 4088,
      "Ġconcerns": 4089,
      "',": 4090,
      "Ġgut": 4091,
      "Ġlad": 4092,
      "usting": 4093,
      "Ġassoci": 4094,
      "urance": 4095,
      "ĠBreak": 4096,
      "ciously": 4097,
      "Ġconsist": 4098,
      "Ġshame": 4099,
      "appro": 4100,
      "Ġemails": 4101,
      "Ġsending": 4102,
      "structive": 4103,
      "Ġsurprise": 4104,
      "Ġx": 4105,
      "Ġsens": 4106,
      "Ġalot": 4107,
      "ĠStill": 4108,
      "Ġfailure": 4109,
      "Ġresults": 4110,
      "icit": 4111,
      "Ġjustify": 4112,
      "ĠHA": 4113,
      "Ġmoves": 4114,
      "Ġinterpret": 4115,
      "mptom": 4116,
      "--------": 4117,
      "mar": 4118,
      "why": 4119,
      "heart": 4120,
      "Ġwise": 4121,
      "ĠFriend": 4122,
      "Ġaccepting": 4123,
      "Ġstranger": 4124,
      "Ġleading": 4125,
      "Ġlistening": 4126,
      "Ġmod": 4127,
      "ĠThats": 4128,
      "Ġsubtle": 4129,
      "Ġromantically": 4130,
      "ĠEverything": 4131,
      "Ġdreams": 4132,
      "IM": 4133,
      "ph": 4134,
      "Ġdancing": 4135,
      "leep": 4136,
      "rog": 4137,
      "Ġexpensive": 4138,
      "Ġsuicide": 4139,
      "tr": 4140,
      "Ġfactor": 4141,
      "Ġsocially": 4142,
      "Ġcausing": 4143,
      "Ġcritic": 4144,
      "Ġschedule": 4145,
      "Ġessentially": 4146,
      "OW": 4147,
      "hel": 4148,
      "Ġfield": 4149,
      "Ġnet": 4150,
      "Ġplus": 4151,
      "Ġtexting": 4152,
      "Ġstring": 4153,
      "Ġjobs": 4154,
      "Ġnumbers": 4155,
      "while": 4156,
      "Ġpe": 4157,
      "especially": 4158,
      "urch": 4159,
      "Ġpred": 4160,
      "Ġfrustrated": 4161,
      "Ġcycle": 4162,
      "Ġsports": 4163,
      "under": 4164,
      "Ġlibid": 4165,
      "ĠEVER": 4166,
      "ĠLife": 4167,
      "Ġmaturity": 4168,
      "Ġsorts": 4169,
      "Ġtrack": 4170,
      "Ġguarantee": 4171,
      "Ġarrange": 4172,
      "Ġplatonic": 4173,
      "Ġpolit": 4174,
      "Ġ23": 4175,
      "Ġblue": 4176,
      "Ġtempt": 4177,
      "Ġbuilt": 4178,
      "Ġplanned": 4179,
      "Ġbedroom": 4180,
      "bl": 4181,
      "Ġice": 4182,
      "Ġgee": 4183,
      "Ġpure": 4184,
      "Ġinstant": 4185,
      "ĠTime": 4186,
      "Ġstressed": 4187,
      "ateg": 4188,
      "Ġrush": 4189,
      "Ġtrad": 4190,
      "Ġpermission": 4191,
      "too": 4192,
      "Ġcasually": 4193,
      "Ġsentence": 4194,
      "Ġdeeper": 4195,
      "Ġhiding": 4196,
      "Ġfeet": 4197,
      "ĠLO": 4198,
      "ormal": 4199,
      "ĠRegard": 4200,
      "need": 4201,
      "Ġminim": 4202,
      "Ġeffective": 4203,
      "Ġhabits": 4204,
      "Ġwhose": 4205,
      "Ġhappily": 4206,
      "Ġquiet": 4207,
      "Ġsmoking": 4208,
      "Ġexplore": 4209,
      "Ġboost": 4210,
      "matic": 4211,
      "Ġgifts": 4212,
      "Ġclubs": 4213,
      "How": 4214,
      "We": 4215,
      "ĠMar": 4216,
      "Ġtreatment": 4217,
      "Ġlevels": 4218,
      "Ġut": 4219,
      "Ġgrew": 4220,
      "ener": 4221,
      "Ġsile": 4222,
      "Ġprim": 4223,
      "ror": 4224,
      "Ġsong": 4225,
      "har": 4226,
      "ork": 4227,
      "atic": 4228,
      "lebr": 4229,
      "Ġoverly": 4230,
      "ception": 4231,
      "Ġcommunicating": 4232,
      "Ġparan": 4233,
      "Ġmeaningful": 4234,
      "Ġresentment": 4235,
      "distance": 4236,
      "Ġtit": 4237,
      "Ġpu": 4238,
      "Ġjokes": 4239,
      "Ġevening": 4240,
      "Ġdisg": 4241,
      "Ġsymptom": 4242,
      "Ġband": 4243,
      "lly": 4244,
      "itable": 4245,
      "orate": 4246,
      "Ġlif": 4247,
      "ĠWhether": 4248,
      "ĠHER": 4249,
      "ibilities": 4250,
      "Ġbuying": 4251,
      "Ġnights": 4252,
      "ification": 4253,
      "Ġhopes": 4254,
      "AA": 4255,
      "have": 4256,
      "cially": 4257,
      "agraph": 4258,
      "ĠREA": 4259,
      "ĠVery": 4260,
      "ground": 4261,
      "Ġphotos": 4262,
      "Ġacknowledge": 4263,
      "ID": 4264,
      "No": 4265,
      "ips": 4266,
      "tw": 4267,
      "Ġfan": 4268,
      "esides": 4269,
      "cell": 4270,
      "Ġoutcome": 4271,
      "Ġtherefore": 4272,
      "Ġbottom": 4273,
      "Ġrepl": 4274,
      "reedom": 4275,
      "Ġqualities": 4276,
      "Ġproperly": 4277,
      "conscious": 4278,
      "ims": 4279,
      "yes": 4280,
      "inting": 4281,
      "Ġfire": 4282,
      "ode": 4283,
      "ĠFo": 4284,
      "ngth": 4285,
      "Ġfund": 4286,
      "Ġclick": 4287,
      "isten": 4288,
      "Ġscary": 4289,
      "Ġchoc": 4290,
      "Ġphrase": 4291,
      "Ġdouble": 4292,
      "Ġcredit": 4293,
      "Ġinstance": 4294,
      "Ġappearance": 4295,
      "Ġroute": 4296,
      "Ġvagina": 4297,
      "Ġlesbian": 4298,
      "Ġlawyer": 4299,
      "ior": 4300,
      "look": 4301,
      "enced": 4302,
      "Ġloose": 4303,
      "Ġartic": 4304,
      "Ġvul": 4305,
      "Ġvari": 4306,
      "Ġourselves": 4307,
      "Ġconclusion": 4308,
      "chan": 4309,
      "ww": 4310,
      "ĠON": 4311,
      "Ġassert": 4312,
      "Ġopportunities": 4313,
      "Ġlogical": 4314,
      "Ġwishes": 4315,
      "Ġroutine": 4316,
      "Ġmemories": 4317,
      "uch": 4318,
      "year": 4319,
      "Ġtheory": 4320,
      "arter": 4321,
      ".....": 4322,
      "unno": 4323,
      "Ġvac": 4324,
      "Ġconscious": 4325,
      "Ġdefensive": 4326,
      "Ġcruel": 4327,
      "Ġvalu": 4328,
      "Ġmasturbate": 4329,
      "thi": 4330,
      "Ġhesit": 4331,
      "Ġstated": 4332,
      "ĠApp": 4333,
      "view": 4334,
      "ĠFW": 4335,
      "Ġblood": 4336,
      "Ġhorny": 4337,
      "Ġpaid": 4338,
      "Ġpolite": 4339,
      "Do": 4340,
      "Ġbesides": 4341,
      "aning": 4342,
      "alse": 4343,
      "ĠTV": 4344,
      "Ġweb": 4345,
      "Ġdise": 4346,
      "Ġunable": 4347,
      "Ġdownvoted": 4348,
      "oses": 4349,
      "Ġcared": 4350,
      "Ġsuggestions": 4351,
      "Ġinfo": 4352,
      "Ġbrings": 4353,
      "Ġformer": 4354,
      "Ġgradu": 4355,
      "Ġhormones": 4356,
      "Ġunlikely": 4357,
      "otic": 4358,
      "Ġstim": 4359,
      "Ġcop": 4360,
      "Ġamong": 4361,
      "Ġperman": 4362,
      "they": 4363,
      "Ġbath": 4364,
      "Ġbutt": 4365,
      "Ġdiff": 4366,
      "Ġlazy": 4367,
      "TH": 4368,
      "ĠInd": 4369,
      "Ġfreedom": 4370,
      "ĠYOUR": 4371,
      "Ġwaited": 4372,
      "Ġgroups": 4373,
      "Ġparagraph": 4374,
      "Ġclosure": 4375,
      "oor": 4376,
      "word": 4377,
      "Ġtall": 4378,
      "ĠCut": 4379,
      "ĠGetting": 4380,
      "Ġwearing": 4381,
      "avy": 4382,
      "Ġlibido": 4383,
      "lished": 4384,
      "Ġdistant": 4385,
      "Ġfights": 4386,
      "Ġscene": 4387,
      "ynam": 4388,
      "Ġled": 4389,
      "asing": 4390,
      "thy": 4391,
      "rage": 4392,
      "eak": 4393,
      "Ġthrowing": 4394,
      "Ġadmitted": 4395,
      "cer": 4396,
      "Ġwelcome": 4397,
      "Ġdebt": 4398,
      "ousand": 4399,
      "Ġacted": 4400,
      "Ġnowhere": 4401,
      "Ġcontent": 4402,
      "Ġversion": 4403,
      "school": 4404,
      "Ġvent": 4405,
      "Ġtons": 4406,
      "Ġfil": 4407,
      "verted": 4408,
      "cking": 4409,
      "Ġsaving": 4410,
      "Ġspark": 4411,
      "lice": 4412,
      "Ġunderstood": 4413,
      "Ġboat": 4414,
      "Ġinclude": 4415,
      "Ġcelebr": 4416,
      "Ġfashi": 4417,
      "10": 4418,
      "every": 4419,
      "oken": 4420,
      "ourse": 4421,
      "Ġshowed": 4422,
      "Ġzero": 4423,
      "Ġwasting": 4424,
      "ĠSeems": 4425,
      "Ġsatisfied": 4426,
      "und": 4427,
      "Ġlatter": 4428,
      "Ġleng": 4429,
      "icing": 4430,
      "ĠDef": 4431,
      "Ġcouch": 4432,
      "Ġhardly": 4433,
      "Ġfrequently": 4434,
      "ĠUsually": 4435,
      "Ġdynam": 4436,
      "Ġintense": 4437,
      "ĠDis": 4438,
      "Ġexciting": 4439,
      "Ġaccord": 4440,
      "cover": 4441,
      "Ġnames": 4442,
      "Ġspe": 4443,
      "Ġproceed": 4444,
      "Ġwarm": 4445,
      "Ġstreet": 4446,
      "ĠQu": 4447,
      "ĠRelationships": 4448,
      "Ġenvironment": 4449,
      "iant": 4450,
      "Ġble": 4451,
      "ĠPart": 4452,
      "ĠDoesn": 4453,
      "Ġrepeat": 4454,
      "Ġsuffer": 4455,
      "loy": 4456,
      "Ġdied": 4457,
      "should": 4458,
      "Ġrestau": 4459,
      "comp": 4460,
      "Ġintelligence": 4461,
      "iliar": 4462,
      "normal": 4463,
      "point": 4464,
      "Ġathe": 4465,
      "Ġrecent": 4466,
      "ĠExactly": 4467,
      "Ġanti": 4468,
      "ape": 4469,
      "Ġgre": 4470,
      "Ġinev": 4471,
      "ĠAd": 4472,
      "Ġflat": 4473,
      "Ġperform": 4474,
      "ĠBefore": 4475,
      "Ġbug": 4476,
      "Ġescal": 4477,
      "Ġfrankly": 4478,
      "Ġtypical": 4479,
      "Ġscrewed": 4480,
      "boyfriend": 4481,
      "gage": 4482,
      "Ġnag": 4483,
      "Ġrealizing": 4484,
      "Ġachie": 4485,
      "Ġtreats": 4486,
      "Ġcutting": 4487,
      "Ġrelatively": 4488,
      "Don": 4489,
      "apt": 4490,
      "Ġtl": 4491,
      "Ġtone": 4492,
      "rees": 4493,
      "hamed": 4494,
      "Ġmillion": 4495,
      "Ġthousand": 4496,
      "Ġtaste": 4497,
      "ĠComp": 4498,
      "Ġdish": 4499,
      "Ġimage": 4500,
      "Ġpassed": 4501,
      "Ġopposed": 4502,
      "Ġannoyed": 4503,
      "Ġvictim": 4504,
      "Ġinexperi": 4505,
      "Ġreward": 4506,
      "Ġliking": 4507,
      "ĠBesides": 4508,
      "aster": 4509,
      "Ġstands": 4510,
      "Ġfears": 4511,
      "Ġchurch": 4512,
      "Ġlogic": 4513,
      "Ġprivacy": 4514,
      "Ġrepeated": 4515,
      "Ġpassionate": 4516,
      ".'": 4517,
      "CT": 4518,
      "zz": 4519,
      "Ġwild": 4520,
      "key": 4521,
      "Ġdomin": 4522,
      "arded": 4523,
      "Ġboss": 4524,
      "Ġmoments": 4525,
      "UCK": 4526,
      "Ġwit": 4527,
      "Ġbon": 4528,
      "ĠTO": 4529,
      "Ġconfess": 4530,
      "Ġrecon": 4531,
      "Ġvia": 4532,
      "Ġcauses": 4533,
      "round": 4534,
      "Ġsarc": 4535,
      "Ġbrea": 4536,
      "Ġreinfor": 4537,
      "ĠAS": 4538,
      "ĠAh": 4539,
      "ĠHas": 4540,
      "Ġoverweight": 4541,
      "ĠEng": 4542,
      "Ġsites": 4543,
      "Ġdisorder": 4544,
      "Ġsecure": 4545,
      "ĠRead": 4546,
      "Ġexplained": 4547,
      "Ġsqu": 4548,
      "itional": 4549,
      "Ġexplicit": 4550,
      "Ġdescription": 4551,
      "Ġadults": 4552,
      "hirt": 4553,
      "Ġdemon": 4554,
      "des": 4555,
      "Ġwow": 4556,
      "Ġbills": 4557,
      "Ġpan": 4558,
      "action": 4559,
      "Ġpicked": 4560,
      "Ġdependent": 4561,
      "cher": 4562,
      "ĠZ": 4563,
      "ĠIT": 4564,
      "Ġling": 4565,
      "Ġlover": 4566,
      "Ġeveryday": 4567,
      "ĠLong": 4568,
      "Ġchill": 4569,
      "Ġmedication": 4570,
      "Ġdisrespectful": 4571,
      "Ġautom": 4572,
      ")?": 4573,
      "OM": 4574,
      "ien": 4575,
      "Ġshi": 4576,
      "Ġsides": 4577,
      "Ġfish": 4578,
      "esus": 4579,
      "Ġashamed": 4580,
      "fered": 4581,
      "Ġhurtful": 4582,
      "Ġesc": 4583,
      "Ġinflu": 4584,
      "Ġarguments": 4585,
      "ĠTHAT": 4586,
      "ron": 4587,
      "Ġsess": 4588,
      "Ġlately": 4589,
      "Ġweed": 4590,
      "rease": 4591,
      "Ġdecides": 4592,
      "Ġrefuse": 4593,
      "Ġbothering": 4594,
      "Ġfinancially": 4595,
      "Ġstrength": 4596,
      "Ġresolve": 4597,
      "Ġbalance": 4598,
      "Ġloud": 4599,
      "venge": 4600,
      "Ġplain": 4601,
      "Ġsmoke": 4602,
      "Ġhooking": 4603,
      "Ġtrain": 4604,
      "Ġflirty": 4605,
      "Ġassholes": 4606,
      "Ġrequires": 4607,
      "etime": 4608,
      "Ġhoney": 4609,
      "Ġdeb": 4610,
      "ulting": 4611,
      "ĠFin": 4612,
      "Ġmessed": 4613,
      "Ġfulfill": 4614,
      "Ġembarrassed": 4615,
      "Ġfalse": 4616,
      "advice": 4617,
      "Ġattach": 4618,
      "ĠPret": 4619,
      "Ġdefine": 4620,
      "Ġdiscussing": 4621,
      "Ġavoiding": 4622,
      "els": 4623,
      "fidence": 4624,
      "io": 4625,
      "uro": 4626,
      "Ġstere": 4627,
      "Ġhon": 4628,
      "Ġoffice": 4629,
      "ĠListen": 4630,
      "Ġaccess": 4631,
      "Ġdiscussed": 4632,
      "Ġtested": 4633,
      "Ġunique": 4634,
      "ĠIMO": 4635,
      "Ġjudgment": 4636,
      "Ġinfatuation": 4637,
      "anced": 4638,
      "Ġupvote": 4639,
      "obody": 4640,
      "Ġdoubts": 4641,
      "Ġregarding": 4642,
      "Ġorgan": 4643,
      "Ġmixed": 4644,
      "Ġalternative": 4645,
      "Ġinnocent": 4646,
      "Ġladies": 4647,
      "So": 4648,
      "ivers": 4649,
      "ube": 4650,
      "Ġdunno": 4651,
      "lement": 4652,
      "ĠWH": 4653,
      "Ġvarious": 4654,
      "Ġtrusting": 4655,
      "Ġopening": 4656,
      "Ġenjoyed": 4657,
      "does": 4658,
      "That": 4659,
      "Ġtens": 4660,
      "Ġhea": 4661,
      "Ġheight": 4662,
      "ris": 4663,
      "ison": 4664,
      "Ġfemin": 4665,
      "Ġtends": 4666,
      "Ġheld": 4667,
      "sen": 4668,
      "Ġupfront": 4669,
      "Ġconsent": 4670,
      "Ġknock": 4671,
      "Ġremo": 4672,
      "whatever": 4673,
      "Ġeffects": 4674,
      "Ġfantastic": 4675,
      "has": 4676,
      "irable": 4677,
      "Ġanal": 4678,
      "Ġseve": 4679,
      "Ġspouse": 4680,
      "Ġrealise": 4681,
      "osp": 4682,
      "Ġscare": 4683,
      "ipolar": 4684,
      "Ġ90": 4685,
      "Ġinvested": 4686,
      "depend": 4687,
      "will": 4688,
      "Ġmas": 4689,
      "sts": 4690,
      "stic": 4691,
      "ening": 4692,
      "Ġjoking": 4693,
      "Ġabortion": 4694,
      "Ġpolice": 4695,
      "Ġmarrying": 4696,
      "Ġframe": 4697,
      "Ġvolunt": 4698,
      "ĠFWB": 4699,
      "mates": 4700,
      "Ġoffered": 4701,
      "Ġsober": 4702,
      "eth": 4703,
      "Ġgold": 4704,
      "Ġspir": 4705,
      "Ġquote": 4706,
      "Ġrefuses": 4707,
      "Ġexplaining": 4708,
      "Ġfaithful": 4709,
      "Ġevolution": 4710,
      "after": 4711,
      "want": 4712,
      "resent": 4713,
      "Ġpair": 4714,
      "Ġinappro": 4715,
      "esy": 4716,
      "Ġjustified": 4717,
      "Ġcooking": 4718,
      "Ġtact": 4719,
      "Ġexper": 4720,
      "ogle": 4721,
      "Ġapproaching": 4722,
      "Ġresponding": 4723,
      "ĠGirl": 4724,
      "Ġaspects": 4725,
      "ILL": 4726,
      "rad": 4727,
      "rary": 4728,
      "Ġdel": 4729,
      "Ġdelete": 4730,
      "ĠLast": 4731,
      "Ġexperiment": 4732,
      "was": 4733,
      "Ġdark": 4734,
      "rop": 4735,
      "Ġimportantly": 4736,
      "Ġinfidelity": 4737,
      "Ġstanding": 4738,
      "ĠValent": 4739,
      "ĠChristian": 4740,
      "Ġengagement": 4741,
      "Ġstereoty": 4742,
      "Ġtaught": 4743,
      "Ġcell": 4744,
      "Ġcand": 4745,
      "Ġinput": 4746,
      "ops": 4747,
      "earing": 4748,
      "ĠDepend": 4749,
      "asty": 4750,
      "osity": 4751,
      "ĠToo": 4752,
      "!!!!": 4753,
      "Ġwarning": 4754,
      "Ġbreath": 4755,
      "Ġsource": 4756,
      "ĠDefinitely": 4757,
      "SE": 4758,
      "feel": 4759,
      "yal": 4760,
      "Ġmales": 4761,
      "Ġcous": 4762,
      "Ġmeal": 4763,
      "ĠDump": 4764,
      "Ġspell": 4765,
      "Ġsperm": 4766,
      "Ġconfusing": 4767,
      "Ġmindset": 4768,
      "Ġgenet": 4769,
      "Ġpathetic": 4770,
      "Ġcuddle": 4771,
      "ume": 4772,
      "Ġfol": 4773,
      "Ġpills": 4774,
      "Ġheavy": 4775,
      "ĠSame": 4776,
      "Ġawkwardness": 4777,
      "Ġpeace": 4778,
      "liness": 4779,
      "Ġworries": 4780,
      "Ġdiagn": 4781,
      "Ġshoulder": 4782,
      "Ġappeal": 4783,
      "Ġpossess": 4784,
      "breaker": 4785,
      "Ġcuddling": 4786,
      "Ġtempor": 4787,
      "cellent": 4788,
      "Ġlength": 4789,
      "fun": 4790,
      "atum": 4791,
      "Ġovercome": 4792,
      "Ġbackground": 4793,
      "Ġshoot": 4794,
      "Ġignored": 4795,
      "Ġblowjob": 4796,
      "eg": 4797,
      "uce": 4798,
      "real": 4799,
      "Ġmiles": 4800,
      "Ġland": 4801,
      "Ġmeas": 4802,
      "ĠSm": 4803,
      "Ġcompared": 4804,
      "ĠCo": 4805,
      "Ġintimid": 4806,
      "Ġwasted": 4807,
      "something": 4808,
      "Ġmotivation": 4809,
      "Ġintroduce": 4810,
      "30": 4811,
      "My": 4812,
      "Ġfreaking": 4813,
      "Ġsole": 4814,
      "Ġrate": 4815,
      "Ġmanaged": 4816,
      "000": 4817,
      "Ġcontinues": 4818,
      "Ġassumed": 4819,
      "Ġmeantime": 4820,
      "ĠRegardless": 4821,
      "Ġlifetime": 4822,
      "course": 4823,
      "mod": 4824,
      "Ġtips": 4825,
      "ases": 4826,
      "ĠSe": 4827,
      "Ġpres": 4828,
      "ĠLuck": 4829,
      "Ġenjoys": 4830,
      "Well": 4831,
      "never": 4832,
      "Ġbud": 4833,
      "Ġnuts": 4834,
      "Ġvs": 4835,
      "Ġcounter": 4836,
      "mbers": 4837,
      "Ġtitle": 4838,
      ":**": 4839,
      "ral": 4840,
      "ĠShow": 4841,
      "ĠOur": 4842,
      "Ġbreaker": 4843,
      "Ġterribly": 4844,
      "Ġinco": 4845,
      "Ġrespectful": 4846,
      "Ġreport": 4847,
      "Ġcontinuing": 4848,
      "Ġdangerous": 4849,
      "hilos": 4850,
      "Ġvulner": 4851,
      "Ġgreen": 4852,
      "riages": 4853,
      "Ġaband": 4854,
      "ĠAss": 4855,
      "Ġrelie": 4856,
      "Ġcompan": 4857,
      "Ġincre": 4858,
      "Ġfinal": 4859,
      "Ġadded": 4860,
      "Ġjudging": 4861,
      "LE": 4862,
      "Ġcake": 4863,
      "Ġbear": 4864,
      "Ġreve": 4865,
      "Ġ(\"": 4866,
      "usion": 4867,
      "ĠCle": 4868,
      "ĠUse": 4869,
      "ĠReal": 4870,
      "Ġhates": 4871,
      "Ġultimatum": 4872,
      "Ġincluded": 4873,
      "Ġresearch": 4874,
      "Ġpedest": 4875,
      "bad": 4876,
      "het": 4877,
      "regard": 4878,
      "Ġseconds": 4879,
      "ĠIN": 4880,
      "Ġblunt": 4881,
      "Ġentit": 4882,
      "Ġrestra": 4883,
      "Ġfocusing": 4884,
      "Ġparanoid": 4885,
      "hilosop": 4886,
      "mory": 4887,
      "qually": 4888,
      "Ġ)": 4889,
      "reesome": 4890,
      "Ġunt": 4891,
      "Ġloser": 4892,
      "Ġconven": 4893,
      "ĠWill": 4894,
      "Ġfacts": 4895,
      "Ġchase": 4896,
      "solutely": 4897,
      "Ġskill": 4898,
      "Ġearth": 4899,
      "Ġteam": 4900,
      "Ġvirginity": 4901,
      "Ġodds": 4902,
      "Ġchocolate": 4903,
      "vive": 4904,
      "Ġdwell": 4905,
      "Ġnasty": 4906,
      "uss": 4907,
      "Ġexpressed": 4908,
      "Ġfamiliar": 4909,
      "Ġentertain": 4910,
      "Ġwalked": 4911,
      "Ġpulling": 4912,
      "Ġ:-)": 4913,
      "Ġtension": 4914,
      "eed": 4915,
      "Ġproof": 4916,
      "Ġdownvote": 4917,
      "Ġscrea": 4918,
      "ache": 4919,
      "aced": 4920,
      "ester": 4921,
      "Ġaccepted": 4922,
      "Ġmeds": 4923,
      "Ġmedic": 4924,
      "Ġshopping": 4925,
      "Ġadopt": 4926,
      "rate": 4927,
      "Ġnail": 4928,
      "ĠBl": 4929,
      "cies": 4930,
      "Ġbrief": 4931,
      "Ġassumption": 4932,
      "And": 4933,
      "Ġtool": 4934,
      "Ġpic": 4935,
      "Ġhes": 4936,
      "Ġequally": 4937,
      "unless": 4938,
      "Ġ11": 4939,
      "Ġfulfilling": 4940,
      "Ġscience": 4941,
      "Ġflaws": 4942,
      "UU": 4943,
      "bot": 4944,
      "part": 4945,
      "Ġ?": 4946,
      "Ġtic": 4947,
      "Ġsed": 4948,
      "Ġgest": 4949,
      "Ġthri": 4950,
      "Ġcomplex": 4951,
      "Ġdiscover": 4952,
      "Ġimpact": 4953,
      "Ġ:/": 4954,
      "Ġopenly": 4955,
      "Ġaccur": 4956,
      "together": 4957,
      "Ġtypically": 4958,
      "Ġhooked": 4959,
      "Ġstrict": 4960,
      "Ġirrelevant": 4961,
      "ĠAmerican": 4962,
      "rs": 4963,
      "whel": 4964,
      "Ġreference": 4965,
      "riday": 4966,
      "ĠAr": 4967,
      "Ġpresence": 4968,
      "ĠPM": 4969,
      "Ġenter": 4970,
      "ĠTHIS": 4971,
      "Ġfantasies": 4972,
      "Ġcustody": 4973,
      "ĠREALLY": 4974,
      "Ġinner": 4975,
      "icip": 4976,
      "Ġprob": 4977,
      "Ġadjust": 4978,
      "ĠNobody": 4979,
      "Ġmarriages": 4980,
      "Ġpreviously": 4981,
      "Ġlegitimate": 4982,
      "Ġinappropriate": 4983,
      "Ġpedestal": 4984,
      "But": 4985,
      "EE": 4986,
      "emp": 4987,
      "Ġegg": 4988,
      "Ġareas": 4989,
      "ĠALL": 4990,
      "Ġdeli": 4991,
      "ĠBu": 4992,
      "unken": 4993,
      "ĠOver": 4994,
      "Ġusual": 4995,
      "Ġcourage": 4996,
      "Ġhardest": 4997,
      "isexual": 4998,
      "Ġkidding": 4999,
      "necess": 5000,
      "Ġboob": 5001,
      "Ġfollowed": 5002,
      "50": 5003,
      "AR": 5004,
      "make": 5005,
      "then": 5006,
      "Ġmil": 5007,
      "Ġcateg": 5008,
      "ites": 5009,
      "antic": 5010,
      "eaking": 5011,
      "Ġrange": 5012,
      "Ġcontribut": 5013,
      "ĠChan": 5014,
      "Ġgranted": 5015,
      "Ġscreen": 5016,
      "ĠUntil": 5017,
      "Ġagreement": 5018,
      "Ġtraits": 5019,
      "Ġlaughing": 5020,
      "Ġmasturbating": 5021,
      "ĠANY": 5022,
      "Ġlimited": 5023,
      "Ġarticle": 5024,
      "dis": 5025,
      "ese": 5026,
      "Ġmemory": 5027,
      "omed": 5028,
      "ĠNice": 5029,
      "Ġran": 5030,
      "Ġuses": 5031,
      "Ġcollect": 5032,
      "Ġdeter": 5033,
      "Ġrandomly": 5034,
      "Ġvague": 5035,
      "Ġpsychological": 5036,
      "Ġobligation": 5037,
      "Ġdisappointed": 5038,
      "Ġuniversity": 5039,
      "20": 5040,
      "Why": 5041,
      "Ġought": 5042,
      "Ġsir": 5043,
      "iled": 5044,
      "Ġoffended": 5045,
      "ĠFeel": 5046,
      "Ġ14": 5047,
      "Ġincident": 5048,
      "Ġsucceed": 5049,
      "Ġclaims": 5050,
      "Ġunwilling": 5051,
      "iffe": 5052,
      "Ġbipolar": 5053,
      "Ġbelow": 5054,
      "Ġseme": 5055,
      "ĠBE": 5056,
      "ĠFr": 5057,
      "Ġremove": 5058,
      "Ġresponded": 5059,
      "Ġpushed": 5060,
      "Ġdropped": 5061,
      "Ġ=)": 5062,
      "Ġnaive": 5063,
      "ii": 5064,
      "person": 5065,
      "rite": 5066,
      "Ġburd": 5067,
      "aying": 5068,
      "assion": 5069,
      "ograp": 5070,
      "Ġgreater": 5071,
      "Ġraped": 5072,
      "Ġchoosing": 5073,
      "Ġevil": 5074,
      "Ġcomplaining": 5075,
      "Ġbegan": 5076,
      "big": 5077,
      "mits": 5078,
      "Ġties": 5079,
      "ony": 5080,
      "Ġgross": 5081,
      "Ġphilosop": 5082,
      "Ġease": 5083,
      "Ġhost": 5084,
      "Ġalright": 5085,
      "Ġdele": 5086,
      "Ġintended": 5087,
      "ĠDay": 5088,
      "igs": 5089,
      "Ġoverwhel": 5090,
      "ĠLots": 5091,
      "Ġdecl": 5092,
      "Ġdrives": 5093,
      "Ġsurvive": 5094,
      "Ġfocused": 5095,
      "Ġcultural": 5096,
      "Ġpriority": 5097,
      "Ġmonogamy": 5098,
      "Ġbaggage": 5099,
      "Ġdisease": 5100,
      "Ġdemonstr": 5101,
      "Ġincompat": 5102,
      "Ġabused": 5103,
      "aded": 5104,
      "ters": 5105,
      "Ġtran": 5106,
      "ology": 5107,
      "ĠKnow": 5108,
      "Ġfalls": 5109,
      "plain": 5110,
      "place": 5111,
      "Ġsuffering": 5112,
      "board": 5113,
      "Ġcontinued": 5114,
      "oly": 5115,
      "ration": 5116,
      "Ġtears": 5117,
      "atically": 5118,
      "Ġsomeday": 5119,
      "Ġasleep": 5120,
      "Ġdealt": 5121,
      "Ġroot": 5122,
      "Ġcrow": 5123,
      "Ġhumans": 5124,
      "noop": 5125,
      "Ġdumping": 5126,
      "Ġignor": 5127,
      "Ġcreated": 5128,
      "Ġprogram": 5129,
      "Ġacquaint": 5130,
      "Ġshift": 5131,
      "cre": 5132,
      "there": 5133,
      "rest": 5134,
      "Ġborn": 5135,
      "Ġselect": 5136,
      "Ġunsure": 5137,
      "Ġparticip": 5138,
      "Ġarms": 5139,
      "uding": 5140,
      "Ġbullet": 5141,
      "Ġapology": 5142,
      "Ġyea": 5143,
      "izz": 5144,
      "Ġthroughout": 5145,
      "ceptive": 5146,
      "Ġterrif": 5147,
      "Ġmisunder": 5148,
      "Ġglass": 5149,
      "Ġaddiction": 5150,
      "Ġthreatened": 5151,
      "Ġvaluable": 5152,
      "iqu": 5153,
      "Ġ..": 5154,
      "ened": 5155,
      "Ġmerely": 5156,
      "Ġadvent": 5157,
      "ĠGreat": 5158,
      "Ġrealizes": 5159,
      "Ġhated": 5160,
      "ERY": 5161,
      "Ġnerd": 5162,
      "Ġexists": 5163,
      "ĠWork": 5164,
      "Ġfunda": 5165,
      "xic": 5166,
      "Ġthi": 5167,
      "onym": 5168,
      "Ġthreesome": 5169,
      "Ġalive": 5170,
      "ĠNew": 5171,
      "Ġspoken": 5172,
      "Ġcompare": 5173,
      "ĠCont": 5174,
      "ĠLo": 5175,
      "Ġunderstandable": 5176,
      "Ġinvited": 5177,
      "Ġexamples": 5178,
      "Ġsweat": 5179,
      "Ġrequired": 5180,
      "related": 5181,
      "Ġfrustration": 5182,
      "ĠNeither": 5183,
      "Ġclarify": 5184,
      "rupt": 5185,
      "Ġepis": 5186,
      "cra": 5187,
      "Ġtiny": 5188,
      "Ġbisexual": 5189,
      "Ġpool": 5190,
      "Ġfav": 5191,
      "although": 5192,
      "ĠVERY": 5193,
      "Ġpsychi": 5194,
      "votes": 5195,
      "Ġexpressing": 5196,
      "Ġhealthi": 5197,
      "Ġhints": 5198,
      "Ġsacrifice": 5199,
      "uu": 5200,
      "zoned": 5201,
      "Ġnic": 5202,
      "Ġje": 5203,
      "Ġshown": 5204,
      "urt": 5205,
      "iming": 5206,
      "ressing": 5207,
      "Ġthoughtful": 5208,
      "Ġbelieves": 5209,
      "Ġintercourse": 5210,
      "ĠOKC": 5211,
      "ĠTrue": 5212,
      "Ġbuddies": 5213,
      "ĠNEVER": 5214,
      "Ġfolks": 5215,
      "Ġsemester": 5216,
      "AP": 5217,
      "Ġbite": 5218,
      "alks": 5219,
      "ĠSimp": 5220,
      "ĠBig": 5221,
      "ucks": 5222,
      "Ġunnecess": 5223,
      "lieve": 5224,
      "Ġpride": 5225,
      "Ġinitially": 5226,
      "Ġfrustrating": 5227,
      "Ġdishonest": 5228,
      "esterday": 5229,
      "try": 5230,
      "onal": 5231,
      "Ġcards": 5232,
      "Ġpics": 5233,
      "hize": 5234,
      "Ġdiet": 5235,
      "Ġrights": 5236,
      "Ġviol": 5237,
      "overed": 5238,
      "Ġpsycho": 5239,
      "Ġfingers": 5240,
      "drah": 5241,
      "Ġeducation": 5242,
      "ĠEnjoy": 5243,
      "Ġfashion": 5244,
      "ums": 5245,
      "zing": 5246,
      "ows": 5247,
      "Ġloc": 5248,
      "Ġloyal": 5249,
      "Ġexcellent": 5250,
      "Ġages": 5251,
      "ĠChi": 5252,
      "Ġafterward": 5253,
      "Ġapplies": 5254,
      "Ġblaming": 5255,
      "Ġsmo": 5256,
      "Ġreplies": 5257,
      "Ġmanipulate": 5258,
      "Ġchallenge": 5259,
      "ĠFriends": 5260,
      "fl": 5261,
      "land": 5262,
      "edit": 5263,
      "Ġsoft": 5264,
      "ĠDr": 5265,
      "Ġoffense": 5266,
      "Ġofficial": 5267,
      "Ġdrunken": 5268,
      "Ġtrusted": 5269,
      "Ġanswered": 5270,
      "Ġmasturbation": 5271,
      "Ġpriorities": 5272,
      "Ġfeedback": 5273,
      "Ġmagic": 5274,
      "Ġrestaurant": 5275,
      "Ġvulnerable": 5276,
      "only": 5277,
      "Ġpin": 5278,
      "Ġsem": 5279,
      "...)": 5280,
      "Ġspam": 5281,
      "ĠFUCK": 5282,
      "oster": 5283,
      "ĠAsian": 5284,
      "Ġpark": 5285,
      "Ġcompliments": 5286,
      "TW": 5287,
      "tf": 5288,
      "zone": 5289,
      "antly": 5290,
      "ĠYea": 5291,
      "erious": 5292,
      "Ġround": 5293,
      "Ġspo": 5294,
      "istically": 5295,
      "ĠJesus": 5296,
      "Ġplays": 5297,
      "Ġcrappy": 5298,
      "Ġbehave": 5299,
      "Ġpulled": 5300,
      "Ġmodel": 5301,
      "Ġreciprocate": 5302,
      "Ġaccomplish": 5303,
      "Ġachieve": 5304,
      "did": 5305,
      "inary": 5306,
      "Ġsaved": 5307,
      "Ġfixed": 5308,
      "Ġstudying": 5309,
      "Ġsentiment": 5310,
      "Ġpoorly": 5311,
      "Ġsalv": 5312,
      "Ġinexperienced": 5313,
      "Ġvolunte": 5314,
      "Ġcrowd": 5315,
      "Ġtip": 5316,
      "lls": 5317,
      "stable": 5318,
      "ĠBetter": 5319,
      "ulate": 5320,
      "Ġtast": 5321,
      "Ġuns": 5322,
      "Ġsucked": 5323,
      "Ġcuriosity": 5324,
      "ĠAbout": 5325,
      "Ġreveal": 5326,
      "Is": 5327,
      "bes": 5328,
      "dge": 5329,
      "dating": 5330,
      "atory": 5331,
      "usted": 5332,
      "Ġaddition": 5333,
      "Ġcompar": 5334,
      "Ġtwent": 5335,
      "Ġelab": 5336,
      "ifying": 5337,
      "Ġunderstands": 5338,
      "Ġincome": 5339,
      "Ġpassing": 5340,
      "Ġneglect": 5341,
      "Ġforeplay": 5342,
      "worthy": 5343,
      "Ġrepeatedly": 5344,
      "ĠEnglish": 5345,
      "uous": 5346,
      "Ġsight": 5347,
      "Ġsane": 5348,
      "atur": 5349,
      "Ġraising": 5350,
      "Ġconsideration": 5351,
      "Ġconcent": 5352,
      "Ġtraum": 5353,
      "Ġprin": 5354,
      "Ġallowing": 5355,
      "Ġimmediate": 5356,
      "Ġ99": 5357,
      "Ġfaster": 5358,
      "Ġdeny": 5359,
      "ribute": 5360,
      "Ġurge": 5361,
      "Ġatheist": 5362,
      "oning": 5363,
      "Ġisnt": 5364,
      "Ġstates": 5365,
      "ĠYep": 5366,
      "Ġteeth": 5367,
      "Ġsky": 5368,
      "Ġstudies": 5369,
      "Ġarguing": 5370,
      "Ġweekends": 5371,
      "Ġorgas": 5372,
      "ervative": 5373,
      "Ġreplace": 5374,
      "ĠFocus": 5375,
      "oun": 5376,
      "ature": 5377,
      "ĠME": 5378,
      "react": 5379,
      "ĠCome": 5380,
      "enses": 5381,
      "Ġsurround": 5382,
      "Ġirrit": 5383,
      "Ġsympathy": 5384,
      "Ġintellectual": 5385,
      "Ġautomatically": 5386,
      "Ġtransit": 5387,
      "bles": 5388,
      "Ġtight": 5389,
      "lled": 5390,
      "Ġgar": 5391,
      "Ġoverall": 5392,
      "lessly": 5393,
      "Ġscr": 5394,
      "Ġinvolves": 5395,
      "struct": 5396,
      "Ġdeveloping": 5397,
      "Ġreminds": 5398,
      "Ġtolerate": 5399,
      "Ġbiological": 5400,
      "AL": 5401,
      "Ġsnoop": 5402,
      "Ġwine": 5403,
      "ndred": 5404,
      "Ġciv": 5405,
      "era": 5406,
      "ationally": 5407,
      "omy": 5408,
      "ĠLOT": 5409,
      "Ġbitches": 5410,
      "Ġhundred": 5411,
      "Ġexception": 5412,
      "Ġdeveloped": 5413,
      "Ġjumping": 5414,
      "Ġrelaxed": 5415,
      "ĠGuy": 5416,
      "Ġvalidation": 5417,
      "ĠSHE": 5418,
      "Ġattachment": 5419,
      "AM": 5420,
      "HH": 5421,
      "both": 5422,
      "ker": 5423,
      "nic": 5424,
      "pha": 5425,
      "talk": 5426,
      "Ġban": 5427,
      "nding": 5428,
      "Ġrevenge": 5429,
      "Ġforcing": 5430,
      "Ġstalk": 5431,
      "Ġjack": 5432,
      "Ġoffering": 5433,
      "ĠGr": 5434,
      "ĠEver": 5435,
      "Ġresist": 5436,
      "Ġdismiss": 5437,
      "ĠJo": 5438,
      "Ġincrease": 5439,
      "Ġinitiating": 5440,
      "ĠPretty": 5441,
      "urope": 5442,
      "rong": 5443,
      "Ġain": 5444,
      "Ġabs": 5445,
      "Ġord": 5446,
      "holic": 5447,
      "Ġclosed": 5448,
      "Ġhole": 5449,
      "ĠGoing": 5450,
      "Ġretarded": 5451,
      "Ġeval": 5452,
      "Ġcharge": 5453,
      "ANT": 5454,
      "Ġpunish": 5455,
      "Ġdevast": 5456,
      "ĠCommun": 5457,
      "Ġassertive": 5458,
      "Ġbathroom": 5459,
      "Ġinfluence": 5460,
      "\")": 5461,
      "iable": 5462,
      "Ġlimits": 5463,
      "ades": 5464,
      "iscu": 5465,
      "vious": 5466,
      "ĠDes": 5467,
      "soever": 5468,
      "wel": 5469,
      "accept": 5470,
      "Ġinsulting": 5471,
      "Ġdramatic": 5472,
      "Ġrefused": 5473,
      "Ġswitch": 5474,
      "Ġchrist": 5475,
      "Ġindicate": 5476,
      "ĠSaydrah": 5477,
      "ĠAbsolutely": 5478,
      "Ġcampus": 5479,
      "interested": 5480,
      "Ġholidays": 5481,
      "Ġvacation": 5482,
      "wife": 5483,
      "Ġmer": 5484,
      "Ġdry": 5485,
      "anity": 5486,
      "Ġwhatsoever": 5487,
      "ney": 5488,
      "Ġverb": 5489,
      "Ġsuspicious": 5490,
      "Ġdynamic": 5491,
      "Ġdetermin": 5492,
      "Ġburden": 5493,
      "down": 5494,
      "Ġmir": 5495,
      "Ġthin": 5496,
      "Ġclic": 5497,
      "Ġcontract": 5498,
      "Ġhandled": 5499,
      "Ġsecurity": 5500,
      "Ġexchange": 5501,
      "Ġsuperf": 5502,
      "Ġmassive": 5503,
      "Ġfavour": 5504,
      ".](<": 5505,
      "pr": 5506,
      "ality": 5507,
      "etc": 5508,
      "ĠDON": 5509,
      "life": 5510,
      "Ġbeforehand": 5511,
      "Ġlasted": 5512,
      "Ġinsurance": 5513,
      "Ġfiguring": 5514,
      "Ġfixing": 5515,
      "ĠAnything": 5516,
      "Ġredditors": 5517,
      "Ġchecking": 5518,
      "Ġinitiative": 5519,
      "ĠFinally": 5520,
      "Ġentitled": 5521,
      ")...": 5522,
      "Ġvice": 5523,
      "utch": 5524,
      "Ġmembers": 5525,
      "Ġsell": 5526,
      "ĠEm": 5527,
      "Ġharass": 5528,
      "Ġdeciding": 5529,
      "Ġminds": 5530,
      "Ġfunction": 5531,
      "Ġassumptions": 5532,
      "Ġnagging": 5533,
      "IG": 5534,
      "Ġprospect": 5535,
      "Ġintend": 5536,
      "ils": 5537,
      "Ġfamil": 5538,
      "Ġclosest": 5539,
      "Ġapproached": 5540,
      "Ġruined": 5541,
      "Ġpenet": 5542,
      "Ġanimal": 5543,
      "Ġpolyam": 5544,
      "Ġtemporary": 5545,
      "dom": 5546,
      "port": 5547,
      "xim": 5548,
      "iring": 5549,
      "Ġshr": 5550,
      "Ġrad": 5551,
      "Ġspread": 5552,
      "ĠFriday": 5553,
      "Ġdisplay": 5554,
      "Ġreasoning": 5555,
      "Ġstops": 5556,
      "Ġstopping": 5557,
      "aches": 5558,
      "Ġcontacting": 5559,
      "Ġadvoc": 5560,
      "Ġfreaked": 5561,
      "Ġslip": 5562,
      "!).": 5563,
      "Ġske": 5564,
      "Ġwalks": 5565,
      "Ġcyn": 5566,
      "ĠBoy": 5567,
      "Ġchest": 5568,
      "Ġpointed": 5569,
      "Ġimply": 5570,
      "Ġposter": 5571,
      "Ġchildish": 5572,
      "Ġlegs": 5573,
      "Ġdamned": 5574,
      "Ġcreative": 5575,
      "pet": 5576,
      "sm": 5577,
      "sive": 5578,
      "Ġcam": 5579,
      "Ġgather": 5580,
      "Ġfort": 5581,
      "Ġsticking": 5582,
      "Ġhosp": 5583,
      "ads": 5584,
      "ĠGot": 5585,
      "ĠCl": 5586,
      "Ġ200": 5587,
      "Ġreactions": 5588,
      "Ġstressful": 5589,
      "Ġsatisfy": 5590,
      "OOOO": 5591,
      "Ġcowork": 5592,
      "ifferent": 5593,
      "ORE": 5594,
      "UD": 5595,
      "away": 5596,
      "bor": 5597,
      "ormed": 5598,
      "Ġnut": 5599,
      "ask": 5600,
      "ĠTR": 5601,
      "Ġpointing": 5602,
      "ĠFl": 5603,
      "Ġleague": 5604,
      "agine": 5605,
      "Ġvast": 5606,
      "ername": 5607,
      "Ġperiods": 5608,
      "Ġlarger": 5609,
      "Ġcrossed": 5610,
      "Ġfinger": 5611,
      "Ġflags": 5612,
      "\"...": 5613,
      "OP": 5614,
      "dep": 5615,
      "ek": 5616,
      "herent": 5617,
      "inc": 5618,
      "orge": 5619,
      "enter": 5620,
      "Ġsteal": 5621,
      "ĠWTF": 5622,
      "ĠNope": 5623,
      "Ġspoke": 5624,
      "Ġsuggests": 5625,
      "Ġfinances": 5626,
      "Ġchasing": 5627,
      "Ġgraduate": 5628,
      "emot": 5629,
      "Ġpsychology": 5630,
      "bro": 5631,
      "ique": 5632,
      "cho": 5633,
      "Ġ***": 5634,
      "Ġmakeup": 5635,
      "Ġsincere": 5636,
      "Ġremote": 5637,
      "âĢĿ": 5638,
      "Ġpatience": 5639,
      "Ġearn": 5640,
      "Ġinternal": 5641,
      "Ġappears": 5642,
      "Ġattempts": 5643,
      "ermine": 5644,
      "Ġyesterday": 5645,
      "Ġbow": 5646,
      "Ġbank": 5647,
      "Ġmild": 5648,
      "Ġfly": 5649,
      "Ġpunch": 5650,
      "Ġinfect": 5651,
      "Ġgodd": 5652,
      "Ġrealistic": 5653,
      "Ġimplies": 5654,
      "ĠBelieve": 5655,
      "Ġconservative": 5656,
      "ĠAlways": 5657,
      "Ġexpectation": 5658,
      "Ġfinished": 5659,
      "Ġsmaller": 5660,
      "Ġregrets": 5661,
      "Ġpopular": 5662,
      "Ġacknowled": 5663,
      "Ġutter": 5664,
      "ĠValentine": 5665,
      "Ġorgasms": 5666,
      "cket": 5667,
      "ey": 5668,
      "pre": 5669,
      "yy": 5670,
      "Ġgau": 5671,
      "orrect": 5672,
      "Ġrely": 5673,
      "Ġliber": 5674,
      "Ġyourselves": 5675,
      "Ġjoy": 5676,
      "Ġsearch": 5677,
      "ĠBTW": 5678,
      "Ġwhoever": 5679,
      "Ġnovel": 5680,
      "Ġcarefully": 5681,
      "Ġchildhood": 5682,
      "nothing": 5683,
      "Ġheads": 5684,
      "ĠExcept": 5685,
      "Ġjudgement": 5686,
      "Ġillness": 5687,
      "Ġpetty": 5688,
      "Ġestablished": 5689,
      "Ġstruggle": 5690,
      ";\"": 5691,
      "RL": 5692,
      "Ġcup": 5693,
      "kets": 5694,
      "Ġanonym": 5695,
      "Ġstom": 5696,
      "Ġhom": 5697,
      "Ġrich": 5698,
      "Ġunus": 5699,
      "ĠGener": 5700,
      "ĠConsider": 5701,
      "ĠStep": 5702,
      "Ġcreating": 5703,
      "Ġboard": 5704,
      "Ġrisks": 5705,
      "Ġadvance": 5706,
      "LD": 5707,
      "give": 5708,
      "ceiving": 5709,
      "Ġstar": 5710,
      "ĠSc": 5711,
      "Ġcope": 5712,
      "ision": 5713,
      "Ġsun": 5714,
      "ĠWatch": 5715,
      "ĠDating": 5716,
      "ĠNone": 5717,
      "Ġresour": 5718,
      "Ġdislike": 5719,
      "Ġlessons": 5720,
      "Ġnerdy": 5721,
      "Ġchecked": 5722,
      "bye": 5723,
      "Ġpractical": 5724,
      "Ġgained": 5725,
      "Ġchatting": 5726,
      "Ġempty": 5727,
      "Ġwindow": 5728,
      "Ġcousin": 5729,
      "Ġaccurate": 5730,
      "GE": 5731,
      "cont": 5732,
      "Ġtong": 5733,
      "haha": 5734,
      "Ġcum": 5735,
      "Ġpee": 5736,
      "ĠAL": 5737,
      "ĠWILL": 5738,
      "ferences": 5739,
      "ategy": 5740,
      "Ġunstable": 5741,
      "Ġusername": 5742,
      "Ġdishes": 5743,
      "ernet": 5744,
      "Ġhunt": 5745,
      "Ġdetermine": 5746,
      "Ġcheats": 5747,
      "Ġintroverted": 5748,
      "bsite": 5749,
      "thinking": 5750,
      "Ġtraditional": 5751,
      "ĠChances": 5752,
      "Ġelaborate": 5753,
      "vol": 5754,
      "Ġshirt": 5755,
      "Ġreceive": 5756,
      "Ġdoll": 5757,
      "Ġexam": 5758,
      "aining": 5759,
      "best": 5760,
      "Ġarrog": 5761,
      "Ġlease": 5762,
      "ionship": 5763,
      "Ġfactors": 5764,
      "Ġrecover": 5765,
      "Ġbehaviors": 5766,
      "Ġoptim": 5767,
      "oooo": 5768,
      "ĠExplain": 5769,
      "Ġpressured": 5770,
      "Ġmanipulation": 5771,
      "Ġflip": 5772,
      "ĠEVERY": 5773,
      "Ġpurely": 5774,
      "Ġpermanent": 5775,
      "Ġrestraining": 5776,
      "igslist": 5777,
      "rr": 5778,
      "Ġditch": 5779,
      "Ġpounds": 5780,
      "Ġneigh": 5781,
      "Ġdiss": 5782,
      "Ġlean": 5783,
      "Ġdepart": 5784,
      "Ġfails": 5785,
      "Ġengine": 5786,
      "Ġanxious": 5787,
      "ĠImagine": 5788,
      "Ġinstantly": 5789,
      "ĠMarriage": 5790,
      "Ġsmooth": 5791,
      "Ġcivil": 5792,
      "Ġstomach": 5793,
      "HA": 5794,
      "aid": 5795,
      "aff": 5796,
      "call": 5797,
      "inter": 5798,
      "ĠIgn": 5799,
      "Ġbelong": 5800,
      "atisf": 5801,
      "Ġmeat": 5802,
      "ĠHS": 5803,
      "ĠDamn": 5804,
      "Ġnose": 5805,
      "Ġgrade": 5806,
      "Ġscore": 5807,
      "Ġworthy": 5808,
      "ĠForget": 5809,
      "consciously": 5810,
      "Ġstudents": 5811,
      "Ġbetrayed": 5812,
      "stitute": 5813,
      "Ġtempted": 5814,
      "Ġgenetic": 5815,
      "Ġcategory": 5816,
      "acceptable": 5817,
      "parent": 5818,
      "Ġbur": 5819,
      "itation": 5820,
      "hical": 5821,
      "Ġstret": 5822,
      "Ġwebsite": 5823,
      "Ġups": 5824,
      "ĠWo": 5825,
      "ĠHigh": 5826,
      "ĠEnd": 5827,
      "irect": 5828,
      "ormat": 5829,
      "Ġstrategy": 5830,
      "Ġrepresent": 5831,
      "mmar": 5832,
      "Ġmentioning": 5833,
      "Ġstatements": 5834,
      "Ġreminded": 5835,
      "Ġinteractions": 5836,
      "Ġsatisfaction": 5837,
      "ĠWithout": 5838,
      "girl": 5839,
      "Ġpretending": 5840,
      "Ġversa": 5841,
      "Ġresolved": 5842,
      "ĠâĢľ": 5843,
      "ĠApparently": 5844,
      "could": 5845,
      "mer": 5846,
      "Ġfet": 5847,
      "Ġlust": 5848,
      "ĠTL": 5849,
      "Ġkit": 5850,
      "Ġcancer": 5851,
      "ongr": 5852,
      "about": 5853,
      "ĠEurope": 5854,
      "ogy": 5855,
      "forward": 5856,
      "Ġresponds": 5857,
      "Ġshock": 5858,
      "Ġmentality": 5859,
      "ĠShit": 5860,
      "Ġestablish": 5861,
      "Ġwatched": 5862,
      "Ġheavi": 5863,
      "orable": 5864,
      "arching": 5865,
      "mpting": 5866,
      "odies": 5867,
      "Ġdiv": 5868,
      "Ġrant": 5869,
      "Ġbelieving": 5870,
      "ĠUh": 5871,
      "Ġtrivi": 5872,
      "Ġsolved": 5873,
      "Ġpromiscu": 5874,
      "Ġhypoc": 5875,
      "Ġtort": 5876,
      "Ġviolence": 5877,
      "Ġsuperficial": 5878,
      "AS": 5879,
      "kind": 5880,
      "Ġbast": 5881,
      "Ġbtw": 5882,
      "Ġded": 5883,
      "Ġgently": 5884,
      "Ġmechan": 5885,
      "Ġneck": 5886,
      "Ġcode": 5887,
      "ĠBUT": 5888,
      "Ġsabot": 5889,
      "Ġfac": 5890,
      "Ġsounded": 5891,
      "standing": 5892,
      "ĠUnder": 5893,
      "Ġvibe": 5894,
      "Ġprice": 5895,
      "Ġdescribing": 5896,
      "Ġpopulation": 5897,
      "Ġphoto": 5898,
      "Ġverbal": 5899,
      "Ġaccidentally": 5900,
      "ĠClearly": 5901,
      "Ġboobs": 5902,
      "Ġfamilies": 5903,
      "UST": 5904,
      "ury": 5905,
      "Ġreceived": 5906,
      "arget": 5907,
      "always": 5908,
      "Ġmyst": 5909,
      "ushing": 5910,
      "Ġoverreact": 5911,
      "Ġeverywhere": 5912,
      "ptor": 5913,
      "Ġfling": 5914,
      "Ġfloor": 5915,
      "ivalent": 5916,
      "Ġinsp": 5917,
      "Ġfoundation": 5918,
      "Ġtraining": 5919,
      "coming": 5920,
      "Ġhorse": 5921,
      "Ġregards": 5922,
      "Ġbabies": 5923,
      "Ġkilling": 5924,
      "Ġkilled": 5925,
      "Ġobser": 5926,
      "Ġoccasion": 5927,
      "ĠPlan": 5928,
      "Ġfiancee": 5929,
      "Ġencounter": 5930,
      "Ġreinforce": 5931,
      "Ġhospital": 5932,
      "CE": 5933,
      "kn": 5934,
      "uh": 5935,
      "Ġauth": 5936,
      "Ġgal": 5937,
      "ĠTurn": 5938,
      "ĠYet": 5939,
      "Ġanytime": 5940,
      "ĠBS": 5941,
      "Ġreasonably": 5942,
      "Ġinclined": 5943,
      "Ġoccasional": 5944,
      "Ġaffectionate": 5945,
      "ĠInternet": 5946,
      "Ġcombination": 5947,
      "Ġsettling": 5948,
      "Ġdisgusting": 5949,
      "hor": 5950,
      "take": 5951,
      "Ġtied": 5952,
      "Ġmal": 5953,
      "ĠGrow": 5954,
      "ĠEX": 5955,
      "Ġ26": 5956,
      "Ġeasiest": 5957,
      "Ġplanet": 5958,
      "ĠIsn": 5959,
      "Ġstrike": 5960,
      "Ġcorrectly": 5961,
      "Ġpropose": 5962,
      "Ġcompatibility": 5963,
      "Ġmassage": 5964,
      "Ġthreatening": 5965,
      "Ġscient": 5966,
      "Ġreferring": 5967,
      "Ġgroc": 5968,
      "In": 5969,
      "fety": 5970,
      "rd": 5971,
      "Ġlon": 5972,
      "rolling": 5973,
      "Ġcore": 5974,
      "pper": 5975,
      "Ġpolic": 5976,
      "Ġwhereas": 5977,
      "assuming": 5978,
      "ĠRes": 5979,
      "osis": 5980,
      "Ġscale": 5981,
      "Ġrace": 5982,
      "Ġworthless": 5983,
      "ĠAnyone": 5984,
      "Ġbeauty": 5985,
      "Ġpleasant": 5986,
      "Ġdiscovered": 5987,
      "Ġindividuals": 5988,
      "Ġempathy": 5989,
      "Ġaccording": 5990,
      "Ġwra": 5991,
      "erg": 5992,
      "Ġnotes": 5993,
      "Ġdoz": 5994,
      "Ġoutright": 5995,
      "Ġupdate": 5996,
      "ĠOUT": 5997,
      "Ġeachother": 5998,
      "Ġappreciated": 5999,
      "Ġlacking": 6000,
      "Ġtopics": 6001,
      "Ġpractically": 6002,
      "probably": 6003,
      "Ġunreal": 6004,
      "Ġoriginally": 6005,
      "Ġarrangement": 6006,
      "Ġpsychiat": 6007,
      "Ġtransition": 6008,
      "Ġtongue": 6009,
      "sc": 6010,
      "Ġbail": 6011,
      "Ġfart": 6012,
      "utral": 6013,
      "urs": 6014,
      "Ġquot": 6015,
      "Ġblog": 6016,
      "Ġrage": 6017,
      "Ġbelieved": 6018,
      "Ġexpects": 6019,
      "Ġpassword": 6020,
      "expect": 6021,
      "duce": 6022,
      "Ġobjective": 6023,
      "Ġobligated": 6024,
      "Be": 6025,
      "RI": 6026,
      "cles": 6027,
      "egr": 6028,
      "rust": 6029,
      "sha": 6030,
      "Ġgap": 6031,
      "Ġlips": 6032,
      "idal": 6033,
      "Ġmember": 6034,
      "ĠARE": 6035,
      "ĠHang": 6036,
      "ĠOut": 6037,
      "Ġoffic": 6038,
      "Ġspare": 6039,
      "ĠLI": 6040,
      "???": 6041,
      "Ġscrewing": 6042,
      "Ġdenial": 6043,
      "Ġhormonal": 6044,
      "Ġchosen": 6045,
      "Ġprojecting": 6046,
      "Ġpredict": 6047,
      "Ġinevitable": 6048,
      "Ġescape": 6049,
      "Ġunnecessary": 6050,
      "Ġunusual": 6051,
      "Not": 6052,
      "aper": 6053,
      "aken": 6054,
      "Ġbill": 6055,
      "orter": 6056,
      "ids": 6057,
      "Ġmoder": 6058,
      "Ġguide": 6059,
      "Ġmark": 6060,
      "Ġ27": 6061,
      "Ġblan": 6062,
      "Ġmessy": 6063,
      "Ġconcert": 6064,
      "Ġexperiencing": 6065,
      "Ġaffected": 6066,
      "spons": 6067,
      "Ġannivers": 6068,
      "Ġmutually": 6069,
      "Ġlosses": 6070,
      "Ġlabel": 6071,
      "minded": 6072,
      "Ġsemi": 6073,
      "?).": 6074,
      "Ġfond": 6075,
      "him": 6076,
      "Ġthrew": 6077,
      "Ġwithdra": 6078,
      "ets": 6079,
      "allow": 6080,
      "Ġwhats": 6081,
      "Ġsafety": 6082,
      "unny": 6083,
      "Ġcompassion": 6084,
      "ĠCongr": 6085,
      "Ġdesirable": 6086,
      "Ġbrush": 6087,
      "Ġpersonalities": 6088,
      "Ġcru": 6089,
      "Ġallows": 6090,
      "Ġcleaning": 6091,
      "Ġmeaningless": 6092,
      "Ġprimary": 6093,
      "Ġ....": 6094,
      "Ġasexual": 6095,
      "Ġlube": 6096,
      "Ġwash": 6097,
      "ĠHE": 6098,
      "une": 6099,
      "igg": 6100,
      "Ġunfortun": 6101,
      "ĠCra": 6102,
      "ames": 6103,
      "Ġmarket": 6104,
      "Ġroles": 6105,
      "ĠWhenever": 6106,
      "ontane": 6107,
      "Ġswing": 6108,
      "ĠInterest": 6109,
      "Ġviolent": 6110,
      "Ġhealthier": 6111,
      "Al": 6112,
      "Ġtv": 6113,
      "Ġbike": 6114,
      "Ġdying": 6115,
      "Ġcaut": 6116,
      "esh": 6117,
      "Ġneeding": 6118,
      "ĠMay": 6119,
      "Ġarous": 6120,
      "Ġchooses": 6121,
      "Ġinviting": 6122,
      "Ġenjoyable": 6123,
      "Ġclassic": 6124,
      "Ġbitchy": 6125,
      "Ġmedi": 6126,
      "Ġadvances": 6127,
      "Ġcorner": 6128,
      "Ġidentify": 6129,
      "Ġhypot": 6130,
      "Ġproduct": 6131,
      "ship": 6132,
      "Ġtiming": 6133,
      "Ġbone": 6134,
      "road": 6135,
      "Ġdoormat": 6136,
      "ĠTalking": 6137,
      "ada": 6138,
      "Ġhil": 6139,
      "Ġexha": 6140,
      "atest": 6141,
      "Ġclin": 6142,
      "oga": 6143,
      "Ġpercent": 6144,
      "Ġobli": 6145,
      "Ġbrut": 6146,
      "Ġlasting": 6147,
      "Ġblowing": 6148,
      "ĠMeet": 6149,
      "UN": 6150,
      "late": 6151,
      "Ġ0": 6152,
      "Ġtrap": 6153,
      "ina": 6154,
      "Ġpity": 6155,
      "ctional": 6156,
      "Ġcance": 6157,
      "rain": 6158,
      "Ġaltogether": 6159,
      "Ġpreference": 6160,
      "Ġenab": 6161,
      "Ġexpert": 6162,
      "ĠRun": 6163,
      "Ġgreatly": 6164,
      "Ġsmarter": 6165,
      "Ġpossibilities": 6166,
      "Ġsincerely": 6167,
      "Ġstays": 6168,
      "Ġextro": 6169,
      "Ġreplied": 6170,
      "Ġheartbreak": 6171,
      "Ġoccasions": 6172,
      "Ġsalt": 6173,
      "ĠCheating": 6174,
      "ĠDepends": 6175,
      "Ġepisode": 6176,
      "):": 6177,
      "WAY": 6178,
      "sl": 6179,
      "sorry": 6180,
      "wed": 6181,
      "Ġbac": 6182,
      "ority": 6183,
      "Ġhits": 6184,
      "Ġcove": 6185,
      "ĠAw": 6186,
      "Ġunacceptable": 6187,
      "Ġsurely": 6188,
      "Ġdisregard": 6189,
      "Ġnicely": 6190,
      "Ġrespects": 6191,
      "Ġtrig": 6192,
      "Ġtrait": 6193,
      "looking": 6194,
      "Ġproperty": 6195,
      "Ġidentity": 6196,
      "ĠNOW": 6197,
      "Ġletters": 6198,
      "Ġsymptoms": 6199,
      "Ġexplicitly": 6200,
      "Ġmeasure": 6201,
      "Ġcliche": 6202,
      "giving": 6203,
      "hope": 6204,
      "ik": 6205,
      "top": 6206,
      "Ġfancy": 6207,
      "vey": 6208,
      "itual": 6209,
      "orrow": 6210,
      "Ġstood": 6211,
      "ĠSit": 6212,
      "ĠAc": 6213,
      "ĠWere": 6214,
      "blem": 6215,
      "ateful": 6216,
      "omb": 6217,
      "Ġlovely": 6218,
      "Ġmath": 6219,
      "Ġperception": 6220,
      "Ġopened": 6221,
      "Ġbroad": 6222,
      "Ġquestioning": 6223,
      "Ġapproval": 6224,
      "Ġtrapped": 6225,
      "Ġshocked": 6226,
      "ternal": 6227,
      "Ġaccounts": 6228,
      "Ġcritical": 6229,
      "Ġfilled": 6230,
      "Ġclimb": 6231,
      "Ġpolitics": 6232,
      "Ġvariety": 6233,
      "ĠASAP": 6234,
      "Ġdeleted": 6235,
      "aturday": 6236,
      "ION": 6237,
      "reg": 6238,
      "Ġfits": 6239,
      "Ġgam": 6240,
      "edly": 6241,
      "otally": 6242,
      "Ġreached": 6243,
      "Ġneutral": 6244,
      "Ġoutgoing": 6245,
      "Ġsea": 6246,
      "ĠMr": 6247,
      "oked": 6248,
      "Ġarbit": 6249,
      "udge": 6250,
      "Ġmeets": 6251,
      "Ġdefined": 6252,
      "ugs": 6253,
      "Ġefforts": 6254,
      "Ġpropos": 6255,
      "Ġmainly": 6256,
      "Ġchemical": 6257,
      "Ġemploy": 6258,
      "Ġobsessed": 6259,
      "Ġcustom": 6260,
      "free": 6261,
      "rum": 6262,
      "Ġbump": 6263,
      "Ġdat": 6264,
      "atul": 6265,
      "ĠSad": 6266,
      "Ġintegr": 6267,
      "ĠBad": 6268,
      "Ġexpand": 6269,
      "ĠPS": 6270,
      "ĠCat": 6271,
      "Ġvote": 6272,
      "mming": 6273,
      "Ġcounse": 6274,
      "Ġteacher": 6275,
      "Ġattempting": 6276,
      "attered": 6277,
      "Ġsignificantly": 6278,
      "Ġholiday": 6279,
      "Ġminimum": 6280,
      "Ġspeed": 6281,
      "Ġgreatest": 6282,
      "Ġsevere": 6283,
      "Ġsolely": 6284,
      "Ġunfortunate": 6285,
      "FF": 6286,
      "chen": 6287,
      "ounce": 6288,
      "ĠSaturday": 6289,
      "Ġsuit": 6290,
      "Ġhighschool": 6291,
      "Ġinformed": 6292,
      "Ġmisery": 6293,
      "Ġpresents": 6294,
      "moon": 6295,
      "Ġgentleman": 6296,
      "ĠAssuming": 6297,
      "Ġscreaming": 6298,
      "Ġcovered": 6299,
      "kin": 6300,
      "mitted": 6301,
      "Ġwide": 6302,
      "Ġhero": 6303,
      "Ġcops": 6304,
      "Ġunderlying": 6305,
      "Ġoper": 6306,
      "Ġlasts": 6307,
      "***": 6308,
      "Ġphr": 6309,
      "Ġadding": 6310,
      "Ġanswering": 6311,
      "Ġjoint": 6312,
      "inese": 6313,
      "Ġapologized": 6314,
      "Ġseparation": 6315,
      "confidence": 6316,
      "Ġcharacteri": 6317,
      "Ġdemanding": 6318,
      "ĠCheck": 6319,
      "Ġcoward": 6320,
      "Ġgauge": 6321,
      "Ġtrivial": 6322,
      "from": 6323,
      "Ġlap": 6324,
      "arian": 6325,
      "Ġhmm": 6326,
      "Ġkink": 6327,
      "ĠAM": 6328,
      "Ġsand": 6329,
      "Ġhandling": 6330,
      "Ġhomework": 6331,
      "ĠAnyways": 6332,
      "Ġbrains": 6333,
      "ONE": 6334,
      "____": 6335,
      "Ġbreasts": 6336,
      "Ġconcentrate": 6337,
      "Ġunrealistic": 6338,
      "Edit": 6339,
      "win": 6340,
      "Ġbright": 6341,
      "Ġcream": 6342,
      "Ġstub": 6343,
      "Ġupvoted": 6344,
      "Ġdear": 6345,
      "Ġagrees": 6346,
      "Ġrat": 6347,
      "Ġbottle": 6348,
      "Ġconfirm": 6349,
      "pleas": 6350,
      "Ġrepro": 6351,
      "Ġcash": 6352,
      "Ġavoided": 6353,
      "Ġviewpoint": 6354,
      "Ġ60": 6355,
      "Ġfailing": 6356,
      "Ġlaug": 6357,
      "Ġprovided": 6358,
      "Ġintrovert": 6359,
      "Ġpowerful": 6360,
      "Ġsecrets": 6361,
      "Ġservice": 6362,
      "Ġgraduated": 6363,
      "Ġescalate": 6364,
      "Ġthousands": 6365,
      "Ġsession": 6366,
      "hot": 6367,
      "mother": 6368,
      "Ġwound": 6369,
      "Ġtoys": 6370,
      "Ġinherent": 6371,
      "arma": 6372,
      "Ġuh": 6373,
      "race": 6374,
      "before": 6375,
      "Ġspontane": 6376,
      "ĠPr": 6377,
      "Ġ13": 6378,
      "Ġdiscl": 6379,
      "Ġ28": 6380,
      "Ġfucks": 6381,
      "ĠUltim": 6382,
      "---": 6383,
      "Ġuseless": 6384,
      "gery": 6385,
      "Ġhorribly": 6386,
      "Ġoccup": 6387,
      "Ġlightly": 6388,
      "Ġsatisfying": 6389,
      "Ġdisappear": 6390,
      "Ġprepare": 6391,
      "Ġfellow": 6392,
      "Ġencouraging": 6393,
      "orderline": 6394,
      "Ġcents": 6395,
      "Ġgeek": 6396,
      "ĠLOL": 6397,
      "Ġremoved": 6398,
      "osterone": 6399,
      "Ġdepartment": 6400,
      "Ġpolicy": 6401,
      "KE": 6402,
      "than": 6403,
      "Ġwre": 6404,
      "Ġwet": 6405,
      "itary": 6406,
      "orous": 6407,
      "ashing": 6408,
      "Ġdoomed": 6409,
      "Ġjail": 6410,
      "Ġweigh": 6411,
      "Ġlovers": 6412,
      "ĠHad": 6413,
      "usi": 6414,
      "cience": 6415,
      "ĠAsking": 6416,
      "Ġsmiling": 6417,
      "igned": 6418,
      "anged": 6419,
      "Ġholds": 6420,
      "Ġrejecting": 6421,
      "Ġruining": 6422,
      "Ġgrammar": 6423,
      "Ġtechnically": 6424,
      "Ġtastes": 6425,
      "Yes": 6426,
      "Ġque": 6427,
      "Ġwa": 6428,
      "eech": 6429,
      "igure": 6430,
      "Ġoffensive": 6431,
      "limin": 6432,
      "ĠPick": 6433,
      "Ġresort": 6434,
      "Ġblond": 6435,
      "Ġrap": 6436,
      "Ġ80": 6437,
      "Ġincludes": 6438,
      "Ġcharming": 6439,
      "Ġdogs": 6440,
      "Ġmaintaining": 6441,
      "Ġbegging": 6442,
      "Ġexerc": 6443,
      "ĠPlay": 6444,
      "Ġmodern": 6445,
      "Ġcriticism": 6446,
      "THING": 6447,
      "radict": 6448,
      "Ġconvenient": 6449,
      "Ġphilosophy": 6450,
      "ĠGenerally": 6451,
      "NOW": 6452,
      "PD": 6453,
      "There": 6454,
      "pical": 6455,
      "would": 6456,
      "ouch": 6457,
      "Ġhence": 6458,
      "ĠAdd": 6459,
      "Ġconstructive": 6460,
      "ĠMight": 6461,
      "Ġtale": 6462,
      "Ġpersist": 6463,
      "Ġreads": 6464,
      "Ġsupporting": 6465,
      "ĠTelling": 6466,
      "Ġaffects": 6467,
      "Ġvirt": 6468,
      "cluding": 6469,
      "Ġobserv": 6470,
      "Ġdiscoura": 6471,
      "Ġdemands": 6472,
      "Ġteenager": 6473,
      "Ġcrushes": 6474,
      "Ġuncertain": 6475,
      "Ġcompanionship": 6476,
      "Ġnicer": 6477,
      "sion": 6478,
      "Ġtarget": 6479,
      "Ġcenter": 6480,
      "Ġgiant": 6481,
      "ators": 6482,
      "irt": 6483,
      "elling": 6484,
      "ĠNah": 6485,
      "Ġcontribute": 6486,
      "ĠCAN": 6487,
      "izations": 6488,
      "osure": 6489,
      "Ġ:).": 6490,
      "Ġdefense": 6491,
      "hysical": 6492,
      "Ġsubmiss": 6493,
      "Ġindul": 6494,
      "Ġcondes": 6495,
      "ĠSpeaking": 6496,
      "Ġcarrying": 6497,
      "Ġfrequent": 6498,
      "Ġgrief": 6499,
      "Ġinfatuated": 6500,
      "Ġcolor": 6501,
      "Ġanimals": 6502,
      "ĠUpvoted": 6503,
      "Ġsilent": 6504,
      "Ġstimul": 6505,
      "Ġsalvage": 6506,
      "Ġverbally": 6507,
      "sided": 6508,
      "tered": 6509,
      "uild": 6510,
      "ĠIUD": 6511,
      "orse": 6512,
      "Ġrevers": 6513,
      "Ġdestructive": 6514,
      "ease": 6515,
      "Ġshoulders": 6516,
      "Ġtrade": 6517,
      "ĠFe": 6518,
      "osexual": 6519,
      "Ġcontra": 6520,
      "aggressive": 6521,
      "Ġpointless": 6522,
      "Ġbrow": 6523,
      "acity": 6524,
      "Ġvibr": 6525,
      "lings": 6526,
      "Ġhousehold": 6527,
      "Ġthreads": 6528,
      "ITH": 6529,
      "Ġserve": 6530,
      "Ġgrie": 6531,
      "Ġintentionally": 6532,
      "Ġcaution": 6533,
      "ĠHAVE": 6534,
      "Ġsilence": 6535,
      "Ġfundamental": 6536,
      "pen": 6537,
      "Ġsnow": 6538,
      "Ġtoss": 6539,
      "arm": 6540,
      "Ġmeals": 6541,
      "Ġstare": 6542,
      "Ġstab": 6543,
      "Ġgoogle": 6544,
      "Ġexcess": 6545,
      "Ġshorter": 6546,
      "Ġgun": 6547,
      "ĠFurther": 6548,
      "ĠEh": 6549,
      "Ġvary": 6550,
      "Ġdisp": 6551,
      "Ġimportance": 6552,
      "Ġterrit": 6553,
      "Ġenth": 6554,
      "Ġchicken": 6555,
      "Ġtease": 6556,
      "Ġinitiated": 6557,
      "ĠGiven": 6558,
      "Ġevolutionary": 6559,
      "Ġcomparison": 6560,
      "Ġprinci": 6561,
      "Ġresources": 6562,
      "Ġbastard": 6563,
      "Ġpsychiatrist": 6564,
      "When": 6565,
      "fast": 6566,
      "uit": 6567,
      "Ġari": 6568,
      "Ġmile": 6569,
      "Ġguts": 6570,
      "asp": 6571,
      "eared": 6572,
      "ourn": 6573,
      "Ġsounding": 6574,
      "Ġimplic": 6575,
      "Ġblat": 6576,
      "Ġconfusion": 6577,
      "Ġcrack": 6578,
      "Ġmessing": 6579,
      "Ġboo": 6580,
      "Ġattractiveness": 6581,
      "Ġsurprising": 6582,
      "Ġmanipulating": 6583,
      "Ġseparated": 6584,
      "Ġsecretly": 6585,
      "Ġconvincing": 6586,
      "Ġinstincts": 6587,
      "sensitive": 6588,
      "protect": 6589,
      "Ġtil": 6590,
      "Ġtang": 6591,
      "Ġyouth": 6592,
      "Ġfri": 6593,
      "Ġnonse": 6594,
      "Ġthumb": 6595,
      "Ġlic": 6596,
      "Ġstalking": 6597,
      "Ġweather": 6598,
      "Ġseven": 6599,
      "ĠFB": 6600,
      "ĠFOR": 6601,
      "Ġexpression": 6602,
      "Ġcontradict": 6603,
      "ĠLive": 6604,
      "Ġcheek": 6605,
      "Ġmates": 6606,
      "**:": 6607,
      "Ġrespecting": 6608,
      "fficient": 6609,
      "Ġpicky": 6610,
      "Ġroommates": 6611,
      "Ġnegatively": 6612,
      "Ġsenior": 6613,
      "box": 6614,
      "Ġdebate": 6615,
      "Ġcynical": 6616,
      "orgeous": 6617,
      "atulations": 6618,
      "better": 6619,
      "een": 6620,
      "iate": 6621,
      "iously": 6622,
      "tri": 6623,
      "Ġbeating": 6624,
      "Ġliar": 6625,
      "Ġbutter": 6626,
      "enders": 6627,
      "ĠSet": 6628,
      "Ġlock": 6629,
      "ĠBack": 6630,
      "Ġbeings": 6631,
      "eria": 6632,
      "Ġrationally": 6633,
      "Ġspring": 6634,
      "Ġuser": 6635,
      "Ġtwist": 6636,
      "perfect": 6637,
      "guy": 6638,
      "Ġbreakups": 6639,
      "voting": 6640,
      "Ġimproving": 6641,
      "Ġindication": 6642,
      "Ġindicates": 6643,
      "Ġslightest": 6644,
      "Ġinvestment": 6645,
      "Ġpsychologist": 6646,
      "Ġweakness": 6647,
      "Ġbattle": 6648,
      "ĠSTDs": 6649,
      "Ġbanging": 6650,
      "ĠCommunication": 6651,
      "Ġofficially": 6652,
      "TM": 6653,
      "born": 6654,
      "Ġfade": 6655,
      "asy": 6656,
      "ĠAD": 6657,
      "imed": 6658,
      "ĠOR": 6659,
      "ĠPre": 6660,
      "Ġinterview": 6661,
      "Ġextended": 6662,
      "Ġexcite": 6663,
      "Ġdrawn": 6664,
      "ĠEverybody": 6665,
      "Ġstraightforward": 6666,
      "Ġtestosterone": 6667,
      "Ġequivalent": 6668,
      "ĠGuess": 6669,
      "Ġincredible": 6670,
      "Ġpieces": 6671,
      "Ġloneliness": 6672,
      "Ġlaying": 6673,
      "Ġsuicidal": 6674,
      "ĠNeed": 6675,
      "Ġconclusions": 6676,
      "Ġconsistently": 6677,
      "Ġcelebrate": 6678,
      "Ġignorant": 6679,
      "Ġacquaintances": 6680,
      "ĠLooking": 6681,
      "REA": 6682,
      "Ã©": 6683,
      "Ġ~": 6684,
      "Ġtat": 6685,
      "ndry": 6686,
      "Ġgaming": 6687,
      "Ġport": 6688,
      "Ġeh": 6689,
      "cending": 6690,
      "Ġabroad": 6691,
      "Ġsuperi": 6692,
      "ĠWant": 6693,
      "ĠWANT": 6694,
      "cist": 6695,
      "Ġunav": 6696,
      "Ġuncle": 6697,
      "getting": 6698,
      "Ġdisaster": 6699,
      "Ġposters": 6700,
      "Ġrecall": 6701,
      "Ġhearts": 6702,
      "Ġdrove": 6703,
      "Ġconnected": 6704,
      "Ġshyness": 6705,
      "hhhh": 6706,
      "Ġkicked": 6707,
      "Ġembarrassing": 6708,
      "Ġyelling": 6709,
      "Ġsettled": 6710,
      "Ġcopy": 6711,
      "Ġprescri": 6712,
      "Ġticket": 6713,
      "Ġgesture": 6714,
      "Ġjewel": 6715,
      "Ġhilarious": 6716,
      "%.": 6717,
      "As": 6718,
      "HT": 6719,
      "jac": 6720,
      "nse": 6721,
      "stop": 6722,
      "icious": 6723,
      "Ġreluct": 6724,
      "Ġmail": 6725,
      "Ġwouldnt": 6726,
      "Ġproven": 6727,
      "Ġdelic": 6728,
      "ĠHapp": 6729,
      "ĠHoly": 6730,
      "Ġexpenses": 6731,
      "Ġsugar": 6732,
      "Ġfallen": 6733,
      "Ġgrowth": 6734,
      "Ġhalfway": 6735,
      "Ġtests": 6736,
      "Ġswit": 6737,
      "stru": 6738,
      "Ġvisiting": 6739,
      "connect": 6740,
      "Ġultimate": 6741,
      "holding": 6742,
      "Ġblew": 6743,
      "Ġkitchen": 6744,
      "Ġanniversary": 6745,
      "got": 6746,
      "ox": 6747,
      "Ġheels": 6748,
      "ĠBot": 6749,
      "Ġdign": 6750,
      "Ġensure": 6751,
      "Ġgrass": 6752,
      "Ġflattered": 6753,
      "Ġperpet": 6754,
      "Ġminded": 6755,
      "Ġdefend": 6756,
      "apers": 6757,
      "Ġprick": 6758,
      "Ġwonders": 6759,
      "Ġpays": 6760,
      "ĠTrying": 6761,
      "Ġexistence": 6762,
      "Ġforgiveness": 6763,
      "ĠQue": 6764,
      "Ġpatterns": 6765,
      "Ġhesitant": 6766,
      "Ġsarcasm": 6767,
      "Ġwithdraw": 6768,
      "aith": 6769,
      "women": 6770,
      "yeah": 6771,
      "Ġsink": 6772,
      "llege": 6773,
      "itter": 6774,
      "Ġecon": 6775,
      "rol": 6776,
      "Ġnotion": 6777,
      "eek": 6778,
      "ĠSha": 6779,
      "ĠWITH": 6780,
      "ĠMY": 6781,
      "Ġgoodbye": 6782,
      "Ġspite": 6783,
      "Ġheaded": 6784,
      "Ġdisturb": 6785,
      "Ġaccom": 6786,
      "Ġkisses": 6787,
      "otel": 6788,
      "Ġcounts": 6789,
      "Ġdesperately": 6790,
      "Ġcalmly": 6791,
      "Ġindependence": 6792,
      "Ġmotivated": 6793,
      "Ġtricky": 6794,
      "Ġoccurred": 6795,
      "Ġstruggling": 6796,
      "Ġstimulation": 6797,
      "Ġsarcastic": 6798,
      "Ġappealing": 6799,
      "Ġmirror": 6800,
      "Ġremotely": 6801,
      "dates": 6802,
      "eval": 6803,
      "Ġgorgeous": 6804,
      "Ġinability": 6805,
      "eness": 6806,
      "rive": 6807,
      "Ġjunk": 6808,
      "ĠYup": 6809,
      "Ġcondit": 6810,
      "Ġcongr": 6811,
      "ĠMo": 6812,
      "lif": 6813,
      "Ġgrateful": 6814,
      "Ġassure": 6815,
      "atively": 6816,
      "Ġsets": 6817,
      "Ġtouched": 6818,
      "Ġcuz": 6819,
      "Ġthankful": 6820,
      "Ġalcoholic": 6821,
      "Ġprotection": 6822,
      "dependent": 6823,
      "Ġpenetration": 6824,
      "ĠWoW": 6825,
      "Just": 6826,
      "Ġwand": 6827,
      "Ġwood": 6828,
      "Ġreceiving": 6829,
      "Ġambit": 6830,
      "Ġthrown": 6831,
      "amily": 6832,
      "Ġsubconsciously": 6833,
      "ians": 6834,
      "Ġreacts": 6835,
      "Ġmorals": 6836,
      "ĠSaying": 6837,
      "Ġbonus": 6838,
      "Ġhoneymoon": 6839,
      "Ġpossessive": 6840,
      "Ġgreener": 6841,
      "Ġadoption": 6842,
      "ĠBuy": 6843,
      "Ġincompatible": 6844,
      "ĠCatholic": 6845,
      "Ġlaughed": 6846,
      "?\".": 6847,
      "TR": 6848,
      "cin": 6849,
      "fix": 6850,
      "ura": 6851,
      "Ġie": 6852,
      "Ġlbs": 6853,
      "itably": 6854,
      "ĠFair": 6855,
      "istics": 6856,
      "Ġvalent": 6857,
      "Ġflower": 6858,
      "letely": 6859,
      "Ġsignal": 6860,
      "except": 6861,
      "Ġrefusing": 6862,
      "Ġgrain": 6863,
      "Ġedge": 6864,
      "ringing": 6865,
      "Ġswim": 6866,
      "Ġengaging": 6867,
      "Ġgradually": 6868,
      "Ġlargely": 6869,
      "Ġdisappointment": 6870,
      "Ġcrushing": 6871,
      "Ġproductive": 6872,
      "Ġmascul": 6873,
      "Ġenthusi": 6874,
      "uced": 6875,
      "Ġsib": 6876,
      "Ġpace": 6877,
      "itudes": 6878,
      "still": 6879,
      "Ġelimin": 6880,
      "Ġrelease": 6881,
      "encies": 6882,
      "keep": 6883,
      "Ġrelations": 6884,
      "Ġsearching": 6885,
      "aus": 6886,
      "Ġdelus": 6887,
      "ĠHU": 6888,
      "ĠMaking": 6889,
      "Ġpreferences": 6890,
      "erie": 6891,
      "ĠLol": 6892,
      "ĠJew": 6893,
      "Ġteasing": 6894,
      "Ġscar": 6895,
      "Ġsubmit": 6896,
      "Ġdiscussions": 6897,
      "Ġtexted": 6898,
      "Ġspeaks": 6899,
      "Ġnerve": 6900,
      "Ġ;-": 6901,
      "Ġartist": 6902,
      "Ġsessions": 6903,
      "Ġstalker": 6904,
      "ĠDespite": 6905,
      "ĠIgnore": 6906,
      "ĠInteresting": 6907,
      "Ġarbitrary": 6908,
      "Ġterritory": 6909,
      "\").": 6910,
      "Man": 6911,
      "_.": 6912,
      "ees": 6913,
      "gging": 6914,
      "lter": 6915,
      "new": 6916,
      "Ġtits": 6917,
      "Ġmount": 6918,
      "hibit": 6919,
      "outs": 6920,
      "Ġtho": 6921,
      "Ġmagn": 6922,
      "ĠHIM": 6923,
      "Ġspin": 6924,
      "ĠHelp": 6925,
      "Ġappoint": 6926,
      "Ġdealbreaker": 6927,
      "Ġassess": 6928,
      "Ġassault": 6929,
      "Ġplayer": 6930,
      "Ġsubconscious": 6931,
      "Ġspecies": 6932,
      "Ġlaundry": 6933,
      "Ġdropping": 6934,
      "aware": 6935,
      "Ġmotives": 6936,
      "ossibly": 6937,
      "ĠRelax": 6938,
      "fucking": 6939,
      "Ġharmless": 6940,
      "Ġpolitely": 6941,
      "Ġjudgmental": 6942,
      "Ġtemptation": 6943,
      "Ġvolunteer": 6944,
      "Ġcautious": 6945,
      "Ġcondescending": 6946,
      "rough": 6947,
      "Ġbum": 6948,
      "Ġbodies": 6949,
      "Ġcast": 6950,
      "Ġcried": 6951,
      "Ġerect": 6952,
      "ctions": 6953,
      "Ġstro": 6954,
      "Ġstaring": 6955,
      "Ġneur": 6956,
      "opath": 6957,
      "Ġmach": 6958,
      "ppiness": 6959,
      "ĠWAY": 6960,
      "ĠBA": 6961,
      "ĠBC": 6962,
      "ĠGO": 6963,
      "Ġspeech": 6964,
      "ifies": 6965,
      "Ġflatter": 6966,
      "Ġsubmission": 6967,
      "ubby": 6968,
      "Ġreduce": 6969,
      "Ġdrift": 6970,
      "Ġhuh": 6971,
      "Ġprofiles": 6972,
      "Ġtesting": 6973,
      "Ġeffectively": 6974,
      "Ġconnections": 6975,
      "Ġwhining": 6976,
      "Ġinteracting": 6977,
      "ATE": 6978,
      "mony": 6979,
      "Ġoverwhelming": 6980,
      "Ġglasses": 6981,
      "Ġhypothet": 6982,
      "*?": 6983,
      "IC": 6984,
      "cupid": 6985,
      "gar": 6986,
      "Ġspect": 6987,
      "Ġpining": 6988,
      "rier": 6989,
      "Ġupper": 6990,
      "Ġalpha": 6991,
      "romantic": 6992,
      "ouses": 6993,
      "Ġapparent": 6994,
      "Ġdesp": 6995,
      "Ġflu": 6996,
      "Ġperceive": 6997,
      "Ġperceived": 6998,
      "Ġconsciously": 6999,
      "Ġseries": 7000,
      "Ġgenital": 7001,
      "Ġseemingly": 7002,
      "Ġredditor": 7003,
      "Ġtendency": 7004,
      "Ġangle": 7005,
      "Ġsadly": 7006,
      "Ġexceptions": 7007,
      "ĠSecondly": 7008,
      "Ġcrime": 7009,
      "Ġclueless": 7010,
      "ĠLOVE": 7011,
      "Ġparticipate": 7012,
      "ĠOKCupid": 7013,
      "broken": 7014,
      "Ġheavily": 7015,
      ";&": 7016,
      "?*": 7017,
      "ems": 7018,
      "lad": 7019,
      "Ġing": 7020,
      "Ġship": 7021,
      "Ġbless": 7022,
      "Ġforms": 7023,
      "Ġforum": 7024,
      "Ġlibr": 7025,
      "Ġkarma": 7026,
      "Ġtheres": 7027,
      "Ġdial": 7028,
      "Ġunrelated": 7029,
      "ĠFigure": 7030,
      "agger": 7031,
      "Ġcheer": 7032,
      "ĠBeen": 7033,
      "ĠUm": 7034,
      "**,": 7035,
      "check": 7036,
      "Ġthreats": 7037,
      "Ġteenage": 7038,
      "Ġconsistent": 7039,
      "Ġintimidated": 7040,
      "Ġstrictly": 7041,
      "Ġevaluate": 7042,
      "Ġneighbor": 7043,
      "Ġtrigger": 7044,
      "Ġnonsense": 7045,
      "fit": 7046,
      "sight": 7047,
      "had": 7048,
      "Ġlimb": 7049,
      "ĠTreat": 7050,
      "Ġanec": 7051,
      "ĠSund": 7052,
      "Ġsection": 7053,
      "ĠDou": 7054,
      "ĠDate": 7055,
      "Ġtrash": 7056,
      "ĠEach": 7057,
      "ĠPoint": 7058,
      "ĠCal": 7059,
      "ĠChange": 7060,
      "Ġtheirs": 7061,
      "adequ": 7062,
      "Ġschools": 7063,
      "Ġrespected": 7064,
      "Ġhating": 7065,
      "ĠKNOW": 7066,
      "Ġdeserved": 7067,
      "Ġveget": 7068,
      "Ġunwanted": 7069,
      "Ġdestroyed": 7070,
      "Ġpermanently": 7071,
      "Ġpanic": 7072,
      "Ġlocation": 7073,
      "Ġadvocate": 7074,
      "Ġanonymous": 7075,
      "Ġexcitement": 7076,
      "Ġanecd": 7077,
      "II": 7078,
      "bi": 7079,
      "fall": 7080,
      "since": 7081,
      "Ġcere": 7082,
      "Ġnur": 7083,
      "Ġreceptive": 7084,
      "Ġju": 7085,
      "Ġguard": 7086,
      "ounded": 7087,
      "ĠDan": 7088,
      "Ġimpul": 7089,
      "Ġimpressed": 7090,
      "Ġapplic": 7091,
      "ogyn": 7092,
      "Ġracist": 7093,
      "Ġgenes": 7094,
      "Ġspends": 7095,
      "Ġworthwhile": 7096,
      "Ġsubst": 7097,
      "Ġremar": 7098,
      "Ġrepair": 7099,
      "Ġbold": 7100,
      "anything": 7101,
      "Ġpressuring": 7102,
      "Ġzoned": 7103,
      "Ġfaults": 7104,
      "working": 7105,
      "Ġresentful": 7106,
      "Ġwisdom": 7107,
      "Ġscenarios": 7108,
      "Ġaffairs": 7109,
      "Ġexclusively": 7110,
      "Ġintellectually": 7111,
      "ĠBottom": 7112,
      "aim": 7113,
      "wrong": 7114,
      "Ġtoy": 7115,
      "Ġinadequ": 7116,
      "illed": 7117,
      "Ġwhatnot": 7118,
      "Ġprecise": 7119,
      "Ġmuse": 7120,
      "quent": 7121,
      "Ġcontemp": 7122,
      "text": 7123,
      "acing": 7124,
      "mmer": 7125,
      "Ġhumili": 7126,
      "Ġski": 7127,
      "Ġskip": 7128,
      "cheating": 7129,
      "Ġlegally": 7130,
      "Ġsuccessfully": 7131,
      "Ġindicator": 7132,
      "Ġhealing": 7133,
      "Ġfoolish": 7134,
      "aaaa": 7135,
      "Ġpuppy": 7136,
      "ĠQuit": 7137,
      "Ġwitness": 7138,
      "Ġsnooping": 7139,
      "Ġpromiscuous": 7140,
      "sponsible": 7141,
      "Ġdignity": 7142,
      "bling": 7143,
      "ductive": 7144,
      "gf": 7145,
      "gien": 7146,
      "ober": 7147,
      "tly": 7148,
      "zed": 7149,
      "Ġ^": 7150,
      "Ġwtf": 7151,
      "rete": 7152,
      "Ġyoga": 7153,
      "Ġcave": 7154,
      "Ġgas": 7155,
      "Ġportion": 7156,
      "Ġeight": 7157,
      "Ġreme": 7158,
      "arn": 7159,
      "verts": 7160,
      "Ġhind": 7161,
      "Ġabst": 7162,
      "Ġhidden": 7163,
      "mple": 7164,
      "Ġintri": 7165,
      "ĠHi": 7166,
      "ĠHold": 7167,
      "ents": 7168,
      "Ġsack": 7169,
      "Ġambig": 7170,
      "ĠCar": 7171,
      "acc": 7172,
      "Ġshake": 7173,
      "Ġheading": 7174,
      "Ġapprove": 7175,
      "ĠAtt": 7176,
      "comfort": 7177,
      "Ġvisual": 7178,
      "Ġadmitting": 7179,
      "Ġsmells": 7180,
      "ĠGranted": 7181,
      "Ġstretch": 7182,
      "ĠUltimately": 7183,
      "ACT": 7184,
      "care": 7185,
      "ich": 7186,
      "serious": 7187,
      "vis": 7188,
      "Ġtie": 7189,
      "Ġsanity": 7190,
      "Ġtoxic": 7191,
      "Ġfle": 7192,
      "Ġkicking": 7193,
      "icated": 7194,
      "Ġoutbreak": 7195,
      "Ġseat": 7196,
      "Ġalien": 7197,
      "ĠHum": 7198,
      "Ġ---": 7199,
      "Ġunpleas": 7200,
      "ĠDont": 7201,
      "Ġplayful": 7202,
      "apan": 7203,
      "Ġresponsibilities": 7204,
      "Ġaffecting": 7205,
      "Ġbrand": 7206,
      "Ġsends": 7207,
      "Ġsnap": 7208,
      "avage": 7209,
      "Ġrationalize": 7210,
      "ĠBased": 7211,
      "Ġfrag": 7212,
      "Ġcourtesy": 7213,
      "Ġburned": 7214,
      "Ġcompetition": 7215,
      "Ġanalyze": 7216,
      "izza": 7217,
      "iques": 7218,
      "Ġharassment": 7219,
      "Ġwreck": 7220,
      "HO": 7221,
      "bage": 7222,
      "first": 7223,
      "nat": 7224,
      "help": 7225,
      "Ġwary": 7226,
      "Ġbel": 7227,
      "Ġhall": 7228,
      "ĠDep": 7229,
      "Ġoffers": 7230,
      "Ġmanly": 7231,
      "Ġpartly": 7232,
      "udos": 7233,
      "type": 7234,
      "ĠLe": 7235,
      "Ġimplying": 7236,
      "ĠRE": 7237,
      "Ġquant": 7238,
      "ĠAlright": 7239,
      "ĠUgh": 7240,
      "atern": 7241,
      "ĠReading": 7242,
      "def": 7243,
      "Ġmisses": 7244,
      "iculty": 7245,
      "Ġjudged": 7246,
      "ĠOften": 7247,
      "Ġcunt": 7248,
      "conf": 7249,
      "ĠDidn": 7250,
      "Ġconsens": 7251,
      "Ġmagically": 7252,
      "Ġvaginal": 7253,
      "Ġskinny": 7254,
      "ĠConfidence": 7255,
      "ĠAmerica": 7256,
      "Ġtorn": 7257,
      "Ġassociate": 7258,
      "Ġbutton": 7259,
      "Ġhonor": 7260,
      "Ġoverreacting": 7261,
      "Ġjewelry": 7262,
      "Ġaccommod": 7263,
      "?'": 7264,
      "dated": 7265,
      "gan": 7266,
      "people": 7267,
      "inity": 7268,
      "Ġmill": 7269,
      "itions": 7270,
      "ana": 7271,
      "ashed": 7272,
      "rome": 7273,
      "Ġoutlook": 7274,
      "Ġdict": 7275,
      "ĠNY": 7276,
      "Ġrings": 7277,
      "Ġvan": 7278,
      "Ġvot": 7279,
      "Ġapplied": 7280,
      "test": 7281,
      "Ġ35": 7282,
      "nel": 7283,
      "ĠKind": 7284,
      "reading": 7285,
      "Ġsurgery": 7286,
      "OULD": 7287,
      "Ġfavors": 7288,
      "mbol": 7289,
      "load": 7290,
      "END": 7291,
      "Ġcosts": 7292,
      "Ġsteady": 7293,
      "Ġbetrayal": 7294,
      "Ġassociated": 7295,
      "Ġdifficulty": 7296,
      "Ġinevitably": 7297,
      "Ġreconnect": 7298,
      "doesn": 7299,
      "known": 7300,
      "ĠAccept": 7301,
      "aithful": 7302,
      "ĠSunday": 7303,
      "FA": 7304,
      "uating": 7305,
      "hasis": 7306,
      "Ġdin": 7307,
      "Ġdorm": 7308,
      "Ġpit": 7309,
      "Ġpatch": 7310,
      "ercise": 7311,
      "atious": 7312,
      "utions": 7313,
      "Ġstock": 7314,
      "Ġkills": 7315,
      "Ġouts": 7316,
      "Ġate": 7317,
      "Ġknee": 7318,
      "ĠBPD": 7319,
      "ĠMom": 7320,
      "Ġunexpect": 7321,
      "belie": 7322,
      "Ġspan": 7323,
      "Ġspine": 7324,
      "Ġcomparing": 7325,
      "ĠPO": 7326,
      "again": 7327,
      "Ġcheesy": 7328,
      "ĠDoing": 7329,
      "Ġtrustworthy": 7330,
      "Ġreco": 7331,
      "Ġshave": 7332,
      "Ġslap": 7333,
      "Ġcontacts": 7334,
      "Ġaddressed": 7335,
      "Ġruns": 7336,
      "Ġcountries": 7337,
      "ĠSpend": 7338,
      "Ġconfronted": 7339,
      "Ġadmire": 7340,
      "Ġobsessing": 7341,
      "Ġmethods": 7342,
      "Ġcrisis": 7343,
      "Ġreassure": 7344,
      "AAAA": 7345,
      "Ġgoddamn": 7346,
      "Ġblanket": 7347,
      "IR": 7348,
      "aked": 7349,
      "equ": 7350,
      "might": 7351,
      "rants": 7352,
      "vable": 7353,
      "Ġov": 7354,
      "analy": 7355,
      "Ġelement": 7356,
      "Ġthro": 7357,
      "Ġcogn": 7358,
      "ĠAmy": 7359,
      "Ġexten": 7360,
      "ains": 7361,
      "ĠMA": 7362,
      "ĠOF": 7363,
      "active": 7364,
      "ĠTherefore": 7365,
      "weet": 7366,
      "Ġteens": 7367,
      "Ġshall": 7368,
      "making": 7369,
      "Ġexploring": 7370,
      "Ġconsiderate": 7371,
      "apable": 7372,
      "Ġinvolving": 7373,
      "Ġformal": 7374,
      "Ġunhappiness": 7375,
      "Ġuniverse": 7376,
      "Ġilleg": 7377,
      "Ġslim": 7378,
      "Ġstringing": 7379,
      "Ġperformance": 7380,
      "ĠSelf": 7381,
      "Ġterrified": 7382,
      "giene": 7383,
      "empt": 7384,
      "lk": 7385,
      "including": 7386,
      "Ġchip": 7387,
      "add": 7388,
      "entive": 7389,
      "ĠBring": 7390,
      "ĠDuring": 7391,
      "Ġpresu": 7392,
      "cip": 7393,
      "beat": 7394,
      "Ġpartially": 7395,
      "ĠCons": 7396,
      "actually": 7397,
      "umably": 7398,
      "Ġlect": 7399,
      "Ġgrind": 7400,
      "Ġcrutch": 7401,
      "ilet": 7402,
      "Ġsurface": 7403,
      "insert": 7404,
      "aptor": 7405,
      "ography": 7406,
      "Ġadventure": 7407,
      "IGHT": 7408,
      "hopefully": 7409,
      "Ġconditions": 7410,
      "uation": 7411,
      "vy": 7412,
      "Ġmort": 7413,
      "Ġpra": 7414,
      "Ġelect": 7415,
      "also": 7416,
      "ette": 7417,
      "Ġasian": 7418,
      "Ġconvey": 7419,
      "Ġprolong": 7420,
      "ushed": 7421,
      "Ġfacial": 7422,
      "mentally": 7423,
      "ressants": 7424,
      "ĠAlmost": 7425,
      "Ġdefinite": 7426,
      "Ġheartache": 7427,
      "Ġpositions": 7428,
      "Ġshortly": 7429,
      "Ġsnugg": 7430,
      "Ġwinter": 7431,
      "Ġcomforting": 7432,
      "Ġemphas": 7433,
      "ĠWorst": 7434,
      "Ġintroduced": 7435,
      "Ġdiagnosed": 7436,
      "Ġthick": 7437,
      "Ġreversed": 7438,
      ".).": 7439,
      "bur": 7440,
      "law": 7441,
      "name": 7442,
      "ware": 7443,
      "xy": 7444,
      "Ġtrolling": 7445,
      "Ġsin": 7446,
      "Ġsna": 7447,
      "ndrome": 7448,
      "Ġdressed": 7449,
      "lliant": 7450,
      "Ġrele": 7451,
      "eting": 7452,
      "idering": 7453,
      "Ġstating": 7454,
      "Ġstability": 7455,
      "ĠAv": 7456,
      "hob": 7457,
      "usually": 7458,
      "ĠGame": 7459,
      "Ġrocks": 7460,
      "acle": 7461,
      "Ġagreeing": 7462,
      "Ġdepressing": 7463,
      "Ġcraz": 7464,
      "Ġbasket": 7465,
      "Ġlisted": 7466,
      "Ġtrips": 7467,
      "Ġdriven": 7468,
      "Ġmisogyn": 7469,
      "Ġmoron": 7470,
      "Ġhookup": 7471,
      "ustral": 7472,
      "Ġpresented": 7473,
      "Ġorient": 7474,
      "Ġgrandmother": 7475,
      "Ġerr": 7476,
      "Ġforgotten": 7477,
      "Ġwebc": 7478,
      "Ġdominant": 7479,
      "Ġlingerie": 7480,
      "Ġdevastated": 7481,
      "ĠEmot": 7482,
      "parents": 7483,
      "Ġoblivious": 7484,
      "Ġblonde": 7485,
      "Ġunavailable": 7486,
      "ams": 7487,
      "fo": 7488,
      "iently": 7489,
      "press": 7490,
      "iration": 7491,
      "ĠTy": 7492,
      "Ġstance": 7493,
      "Ġstages": 7494,
      "Ġjustification": 7495,
      "Ġhiking": 7496,
      "Ġload": 7497,
      "pport": 7498,
      "ĠWalk": 7499,
      "ssip": 7500,
      "Ġtab": 7501,
      "Ġattribut": 7502,
      "ĠHeh": 7503,
      "ĠNote": 7504,
      "Ġremorse": 7505,
      "Ġremembering": 7506,
      "Ġsymbol": 7507,
      "Ġbegins": 7508,
      "Ġmentions": 7509,
      "Ġtroubles": 7510,
      "Ġteaching": 7511,
      "ĠChinese": 7512,
      "Ġflirtatious": 7513,
      "Ġdoctors": 7514,
      "Ġcapacity": 7515,
      "Ġconfrontation": 7516,
      "Ġmagical": 7517,
      "Ġguaranteed": 7518,
      "Ġbiology": 7519,
      "ĠONE": 7520,
      "Ġtaller": 7521,
      "Ġblowjobs": 7522,
      "Ġarrogant": 7523,
      "Ġstubborn": 7524,
      "Ġlicense": 7525,
      "Ġsiblings": 7526,
      "TER": 7527,
      "great": 7528,
      "uary": 7529,
      "Ġbread": 7530,
      "Ġder": 7531,
      "Ġdut": 7532,
      "Ġpizza": 7533,
      "stern": 7534,
      "Ġeager": 7535,
      "Ġforbid": 7536,
      "chy": 7537,
      "Ġattend": 7538,
      "Ġrealised": 7539,
      "nger": 7540,
      "Ġblown": 7541,
      "Ġcraw": 7542,
      "Ġfold": 7543,
      "Ġpasses": 7544,
      "Ġgrace": 7545,
      "Ġretro": 7546,
      "ooo": 7547,
      "Ġcircles": 7548,
      "Ġamounts": 7549,
      "Ġequation": 7550,
      "Ġlogically": 7551,
      "Ġreplying": 7552,
      "Ġhygiene": 7553,
      "Ġwalls": 7554,
      "Ġaddicted": 7555,
      "Ġreaching": 7556,
      "ĠIndian": 7557,
      "everything": 7558,
      "Ġanalogy": 7559,
      "ĠKnowing": 7560,
      "Ġtwenty": 7561,
      "Ġhundreds": 7562,
      "Ġutterly": 7563,
      "Ġgrocery": 7564,
      "Ġvibrator": 7565,
      "Ġbooze": 7566,
      "evaluate": 7567,
      "ĠHUGE": 7568,
      "Ġunpleasant": 7569,
      "gen": 7570,
      "live": 7571,
      "non": 7572,
      "Ġsch": 7573,
      "rehen": 7574,
      "erous": 7575,
      "Ġhass": 7576,
      "Ġlift": 7577,
      "irting": 7578,
      "ĠTe": 7579,
      "Ġstig": 7580,
      "Ġarent": 7581,
      "Ġtag": 7582,
      "Ġbackup": 7583,
      "Ġbackwards": 7584,
      "ĠFunny": 7585,
      "Ġreser": 7586,
      "agers": 7587,
      "Ġbreakfast": 7588,
      "Ġdepth": 7589,
      "Ġacceptance": 7590,
      "Ġsimilarly": 7591,
      "Ġtouchy": 7592,
      "Ġdaddy": 7593,
      "Ġwhiny": 7594,
      "EAR": 7595,
      "ĠDOES": 7596,
      "Ġtransfer": 7597,
      "Ġreflection": 7598,
      "Ġsympathize": 7599,
      "Ġdeliber": 7600,
      "crazy": 7601,
      "Ġdetermined": 7602,
      "Ġcamera": 7603,
      "Ġaroused": 7604,
      "Re": 7605,
      "cr": 7606,
      "find": 7607,
      "fire": 7608,
      "power": 7609,
      "Ġfile": 7610,
      "Ġow": 7611,
      "Ġheat": 7612,
      "meaning": 7613,
      "otal": 7614,
      "Ġisol": 7615,
      "Ġdoors": 7616,
      "Ġhotel": 7617,
      "Ġoutlet": 7618,
      "ishes": 7619,
      "Ġrealization": 7620,
      "Ġdesk": 7621,
      "Ġgrat": 7622,
      "Ġsche": 7623,
      "Ġimm": 7624,
      "Ġslack": 7625,
      "Ġprot": 7626,
      "Ġimagining": 7627,
      "Ġdamaged": 7628,
      "Ġnegot": 7629,
      "mbling": 7630,
      "Ġmaster": 7631,
      "Ġshots": 7632,
      "Ġimmaturity": 7633,
      "Ġrecipe": 7634,
      "Ġobsessive": 7635,
      "ohn": 7636,
      "cument": 7637,
      "----------------": 7638,
      "Ġsongs": 7639,
      "ĠFrankly": 7640,
      "ĠSimple": 7641,
      "HAHA": 7642,
      "Ġdozen": 7643,
      "WAYS": 7644,
      "Ġlibrary": 7645,
      "Ġfragile": 7646,
      "bar": 7647,
      "gression": 7648,
      "nes": 7649,
      "son": 7650,
      "tell": 7651,
      "Ġtur": 7652,
      "Ġcoinc": 7653,
      "inking": 7654,
      "Ġexternal": 7655,
      "elled": 7656,
      "Ġsexist": 7657,
      "Ġadorable": 7658,
      "eries": 7659,
      "Ġattitudes": 7660,
      "Ġdownvotes": 7661,
      "Ġdecade": 7662,
      "amond": 7663,
      "Ġassured": 7664,
      "Ġhandful": 7665,
      "Ġstruct": 7666,
      "Ġolds": 7667,
      "vention": 7668,
      "Ġincorrect": 7669,
      "Ġfigures": 7670,
      "Ġpositively": 7671,
      "Ġimagination": 7672,
      "space": 7673,
      "Ġproviding": 7674,
      "Ġremaining": 7675,
      "ĠProblem": 7676,
      "ĠLooks": 7677,
      "Ġrepeating": 7678,
      "Ġcriteria": 7679,
      "Ġrebuild": 7680,
      "ĠâĢĵ": 7681,
      "phone": 7682,
      "Ġnetwork": 7683,
      "Ġmedicine": 7684,
      "ĠHSV": 7685,
      "Ġdata": 7686,
      "ĠSadly": 7687,
      "ĠFurthermore": 7688,
      "Ġneurotic": 7689,
      "Ġhypothetical": 7690,
      "HING": 7691,
      "aps": 7692,
      "rated": 7693,
      "Ġtear": 7694,
      "Ġtick": 7695,
      "Ġbreed": 7696,
      "Ġborderline": 7697,
      "Ġtoilet": 7698,
      "ĠIF": 7699,
      "Ġflying": 7700,
      "Ġgenders": 7701,
      "Ġele": 7702,
      "illa": 7703,
      "ĠDown": 7704,
      "Ġrow": 7705,
      "Ġmanife": 7706,
      "ĠPle": 7707,
      "imil": 7708,
      "ĠJapan": 7709,
      "Ġwherever": 7710,
      "Ġexcl": 7711,
      "Ġremark": 7712,
      "iped": 7713,
      "Ġcurb": 7714,
      "Ġimagined": 7715,
      "Ġcommitting": 7716,
      "ĠMostly": 7717,
      "Ġapologizing": 7718,
      "Ġsentences": 7719,
      "ĠAnn": 7720,
      "ĠWouldn": 7721,
      "Ġtechnique": 7722,
      "Ġfreshman": 7723,
      "Ġcontributing": 7724,
      "Ġscratch": 7725,
      "Ġpunishment": 7726,
      "emotional": 7727,
      "Ġsubmissive": 7728,
      "Ġillegal": 7729,
      ");": 7730,
      "IV": 7731,
      "Yeah": 7732,
      "afe": 7733,
      "tical": 7734,
      "xious": 7735,
      "Ġaid": 7736,
      "ĠIRL": 7737,
      "Ġlou": 7738,
      "high": 7739,
      "Ġnu": 7740,
      "Ġinsensitive": 7741,
      "Ġformat": 7742,
      "Ġalter": 7743,
      "Ġfaking": 7744,
      "Ġtack": 7745,
      "Ġmum": 7746,
      "Ġrum": 7747,
      "Ġbacking": 7748,
      "ĠPh": 7749,
      "umber": 7750,
      "Ġdiscomfort": 7751,
      "Ġquir": 7752,
      "Ġcraigslist": 7753,
      "Ġnumerous": 7754,
      "ĠKiss": 7755,
      "Ġsolutions": 7756,
      "OTH": 7757,
      "Ġcreeper": 7758,
      "ĠThree": 7759,
      "Ġforgiving": 7760,
      "Ġforgetting": 7761,
      "Ġsadness": 7762,
      "Ġpromises": 7763,
      "Ġwears": 7764,
      "Ġprofession": 7765,
      "Ġremains": 7766,
      "Ġnearby": 7767,
      "Ġclaimed": 7768,
      "Ġarticul": 7769,
      "Ġcircumstance": 7770,
      "Ġlinked": 7771,
      "TFO": 7772,
      "Ġirresponsible": 7773,
      "ĠNEED": 7774,
      "Ġaccusing": 7775,
      "Ġprimarily": 7776,
      "Ġrewarding": 7777,
      "ĠLuckily": 7778,
      "Ġwrapped": 7779,
      "Ġsuperior": 7780,
      "ELL": 7781,
      "speci": 7782,
      "wing": 7783,
      "wait": 7784,
      "Ġwing": 7785,
      "Ġwounds": 7786,
      "Ġfed": 7787,
      "Ġlub": 7788,
      "Ġnar": 7789,
      "Ġitems": 7790,
      "rish": 7791,
      "ĠTotally": 7792,
      "Ġgossip": 7793,
      "Ġhip": 7794,
      "eoples": 7795,
      "ĠDad": 7796,
      "ĠGTFO": 7797,
      "Ġimplied": 7798,
      "Ġfuckin": 7799,
      "Ġconfir": 7800,
      "Ġimo": 7801,
      "Ġplane": 7802,
      "deal": 7803,
      "apy": 7804,
      "Ġrepul": 7805,
      "Ġwondered": 7806,
      "Ġmisinter": 7807,
      "Ġprone": 7808,
      "airs": 7809,
      "Ġhotter": 7810,
      "Ġthrowaway": 7811,
      "ĠTHEN": 7812,
      "Ġhoped": 7813,
      "Ġpromised": 7814,
      "Ġsweetheart": 7815,
      "easy": 7816,
      "Ġdesperation": 7817,
      "Ġcats": 7818,
      "month": 7819,
      "Ġerror": 7820,
      "Ġurges": 7821,
      "Ġarranged": 7822,
      "Ġpolitical": 7823,
      "creep": 7824,
      "Ġshrink": 7825,
      "Ġenabling": 7826,
      "bly": 7827,
      "sn": 7828,
      "ulf": 7829,
      "Ġaim": 7830,
      "Ġsust": 7831,
      "Ġive": 7832,
      "Ġdit": 7833,
      "Ġdare": 7834,
      "Ġcig": 7835,
      "itor": 7836,
      "stra": 7837,
      "oration": 7838,
      "Ġbeers": 7839,
      "Ġnude": 7840,
      "Ġinn": 7841,
      "ĠYES": 7842,
      "Ġexagger": 7843,
      "ĠTheir": 7844,
      "Ġpoison": 7845,
      "arer": 7846,
      "lihood": 7847,
      "uded": 7848,
      "raction": 7849,
      "onday": 7850,
      "Ġgrounds": 7851,
      "rench": 7852,
      "Ġappreciates": 7853,
      "ĠThrow": 7854,
      "Ġshares": 7855,
      "ĠSOM": 7856,
      "oof": 7857,
      "Ġdicks": 7858,
      "Ġuncommon": 7859,
      "Ġunfaithful": 7860,
      "Ġdenying": 7861,
      "Ġbrilliant": 7862,
      "Ġtemper": 7863,
      "Ġtechniques": 7864,
      "Ġmilitary": 7865,
      "Ġtwenties": 7866,
      "Ġtorture": 7867,
      "Ġlongest": 7868,
      "Ġcancel": 7869,
      "Ġintegrity": 7870,
      "Ġcounselling": 7871,
      "Ġ;-)": 7872,
      "For": 7873,
      "MM": 7874,
      "ronic": 7875,
      "Ġ!": 7876,
      "Ġaud": 7877,
      "Ġcure": 7878,
      "Ġdod": 7879,
      "ĠSavage": 7880,
      "ĠAp": 7881,
      "open": 7882,
      "ĠWay": 7883,
      "aul": 7884,
      "Ġtax": 7885,
      "Ġtail": 7886,
      "aby": 7887,
      "Ġpartying": 7888,
      "ĠFTF": 7889,
      "Ġclock": 7890,
      "Ġcheese": 7891,
      "Ġdecline": 7892,
      "****": 7893,
      "Ġbuzz": 7894,
      "Ġsubs": 7895,
      "Ġconcrete": 7896,
      "......": 7897,
      "Ġlapt": 7898,
      "grad": 7899,
      "Ġsupposedly": 7900,
      "Ġmadly": 7901,
      "Ġcharm": 7902,
      "Ġemphasis": 7903,
      "Ġidiots": 7904,
      "Ġclarity": 7905,
      "Ġwaters": 7906,
      "Ġfirmly": 7907,
      "Ġbudget": 7908,
      "UUUU": 7909,
      "Ġcoworkers": 7910,
      "Ġreinforcement": 7911,
      "Ġexercising": 7912,
      "Ġappointment": 7913,
      "Am": 7914,
      "CH": 7915,
      "hite": 7916,
      "lot": 7917,
      "mma": 7918,
      "much": 7919,
      "Ġdys": 7920,
      "Ġpal": 7921,
      "Ġpeoples": 7922,
      "Ġbefriend": 7923,
      "Ġinj": 7924,
      "ĠThird": 7925,
      "ĠTaking": 7926,
      "Ġantic": 7927,
      "Ġstars": 7928,
      "ĠAustral": 7929,
      "Ġatm": 7930,
      "oday": 7931,
      "urrent": 7932,
      "ortant": 7933,
      "ained": 7934,
      "ĠMet": 7935,
      "ĠDec": 7936,
      "Ġdiamond": 7937,
      "ĠPR": 7938,
      "Ġcontrary": 7939,
      "ractice": 7940,
      "ressive": 7941,
      "Ġmatches": 7942,
      "ĠInv": 7943,
      "ormally": 7944,
      "Ġobno": 7945,
      "Ġsmiles": 7946,
      "Ġincapable": 7947,
      "Ġsigned": 7948,
      "Ġcloset": 7949,
      "Ġcloseness": 7950,
      "ological": 7951,
      "Ġwillingness": 7952,
      "Ġ45": 7953,
      "Ġtrained": 7954,
      "Ġexplains": 7955,
      "Ġreacted": 7956,
      "Ġappreciation": 7957,
      "Ġdescribes": 7958,
      "spring": 7959,
      "Ġpartnership": 7960,
      "Ġjumped": 7961,
      "Ġvirgins": 7962,
      "Ġembrace": 7963,
      "Ġserv": 7964,
      "ENT": 7965,
      "Ġessential": 7966,
      "Ġinterpretation": 7967,
      "Ġgeeky": 7968,
      "Ġlingering": 7969,
      "ĠDepending": 7970,
      "Ġmechanism": 7971,
      "Ġsabotage": 7972,
      "Ġretrospect": 7973,
      "IL": 7974,
      "cling": 7975,
      "Ġtreme": 7976,
      "itate": 7977,
      "Ġstone": 7978,
      "ĠAT": 7979,
      "Ġloop": 7980,
      "Ġsum": 7981,
      "ĠOff": 7982,
      "ĠGET": 7983,
      "Ġimper": 7984,
      "ĠRather": 7985,
      "Ġide": 7986,
      "ĠWelcome": 7987,
      "Ġstrings": 7988,
      "Ġhangs": 7989,
      "ample": 7990,
      "Ġcrash": 7991,
      "Ġboot": 7992,
      "ĠGoogle": 7993,
      "plan": 7994,
      "Ġimproved": 7995,
      "Ġencouraged": 7996,
      "Ġridiculously": 7997,
      "Ġhugs": 7998,
      "Ġfootball": 7999,
      "Ġinsisted": 8000,
      "Ġadopted": 8001,
      "married": 8002,
      "Ġfeminist": 8003,
      "Ġtickets": 8004,
      "Ġgestures": 8005,
      "Ġfortun": 8006,
      "Ġfetish": 8007,
      "Ġmachine": 8008,
      "Ġprecisely": 8009,
      "Ġintrigu": 8010,
      "Ġthroat": 8011,
      "Ġtremend": 8012,
      "100": 8013,
      "40": 8014,
      "eous": 8015,
      "father": 8016,
      "husband": 8017,
      "ĠId": 8018,
      "Ġcities": 8019,
      "Ġbend": 8020,
      "Ġrevol": 8021,
      "asive": 8022,
      "eez": 8023,
      "Ġstink": 8024,
      "Ġlikelihood": 8025,
      "Ġ\"*": 8026,
      "Ġpocket": 8027,
      "uled": 8028,
      "ĠMO": 8029,
      "Ġdimin": 8030,
      "cile": 8031,
      "ept": 8032,
      "Ġadore": 8033,
      "ĠNor": 8034,
      "ĠGra": 8035,
      "ĠGlad": 8036,
      "Ġamic": 8037,
      "Ġkindness": 8038,
      "Ġscream": 8039,
      "ditional": 8040,
      "Ġdefault": 8041,
      "Ġroses": 8042,
      "Ġbehaving": 8043,
      "Ġcars": 8044,
      "Ġcreeped": 8045,
      "uddy": 8046,
      "Ġswear": 8047,
      "Ġswallow": 8048,
      "Ġapologies": 8049,
      "Ġblows": 8050,
      "Ġfoods": 8051,
      "Ġmotor": 8052,
      "Ġmainten": 8053,
      "hhh": 8054,
      "Ġbridge": 8055,
      "Ġhungry": 8056,
      "Ġbalanced": 8057,
      "Ġdragging": 8058,
      "Ġlegitim": 8059,
      "Ġtraveling": 8060,
      "Ġcrushed": 8061,
      "Ġempathize": 8062,
      "Ġfilm": 8063,
      "Ġaccordingly": 8064,
      "Ġmilk": 8065,
      "Ġabsurd": 8066,
      "Ġfavourite": 8067,
      "Ġliberal": 8068,
      "ĠALWAYS": 8069,
      "Ġhypocrit": 8070,
      "ursday": 8071,
      "aternity": 8072,
      "99": 8073,
      "Hi": 8074,
      "Maybe": 8075,
      "cut": 8076,
      "family": 8077,
      "iff": 8078,
      "ton": 8079,
      "talking": 8080,
      "Ġwhis": 8081,
      "Ġreverse": 8082,
      "Ġnoticing": 8083,
      "Ġgoof": 8084,
      "icate": 8085,
      "Ġwasnt": 8086,
      "ĠHard": 8087,
      "intention": 8088,
      "ĠPeriod": 8089,
      "Ġcloud": 8090,
      "ĠCH": 8091,
      "Ġkeen": 8092,
      "ĠRep": 8093,
      "Ġmonster": 8094,
      "Ġflo": 8095,
      "Ġmeetup": 8096,
      "Ġchore": 8097,
      "ails": 8098,
      "Ġsleeps": 8099,
      "Ġstraw": 8100,
      "Ġstrain": 8101,
      "Ġdesired": 8102,
      "Ġamazed": 8103,
      "Ġdevelopment": 8104,
      "Ġwinning": 8105,
      "girls": 8106,
      "Ġimprovement": 8107,
      "Ġclothing": 8108,
      "Ġevolved": 8109,
      "Ġinterpreted": 8110,
      "Ġstereotype": 8111,
      "Ġdiagnosis": 8112,
      "ĠPMS": 8113,
      "Ġmisunderstanding": 8114,
      "ĠJoe": 8115,
      "Ġdysfun": 8116,
      "Ġmaintenance": 8117,
      "Ok": 8118,
      "log": 8119,
      "pot": 8120,
      "Ġfert": 8121,
      "Ġge": 8122,
      "stics": 8123,
      "mean": 8124,
      "ĠYa": 8125,
      "Ġseason": 8126,
      "rying": 8127,
      "ĠHIS": 8128,
      "Ġsayin": 8129,
      "ĠOpen": 8130,
      "Ġgoods": 8131,
      "Ġ-&": 8132,
      "Ġlifelong": 8133,
      "ĠLET": 8134,
      "ĠJohn": 8135,
      "Ġconsiders": 8136,
      "Ġextend": 8137,
      "Ġindirect": 8138,
      "Ġtricks": 8139,
      "Ġmanipulated": 8140,
      "ĠSeeing": 8141,
      "Ġreminder": 8142,
      "Ġexisted": 8143,
      "????": 8144,
      "Ġsafely": 8145,
      "workers": 8146,
      "Ġjerks": 8147,
      "Ġproposed": 8148,
      "EST": 8149,
      "Ġtransl": 8150,
      "Ġtradition": 8151,
      "Ġeggs": 8152,
      "ĠContin": 8153,
      "ĠFUCKING": 8154,
      "Ġgarbage": 8155,
      "Ġdollars": 8156,
      "Ġengineering": 8157,
      "atisfied": 8158,
      "Ġspectrum": 8159,
      "ĠFTFY": 8160,
      "EDIT": 8161,
      "bringing": 8162,
      "made": 8163,
      "move": 8164,
      "hest": 8165,
      "Ġmic": 8166,
      "Ġmating": 8167,
      "thought": 8168,
      "ĠSend": 8169,
      "ĠSte": 8170,
      "ĠSave": 8171,
      "Ġcoping": 8172,
      "Ġoutwe": 8173,
      "opp": 8174,
      "ĠWrite": 8175,
      "things": 8176,
      "ĠMon": 8177,
      "ĠDID": 8178,
      "aret": 8179,
      "Ġovernight": 8180,
      "ĠLTR": 8181,
      "Ġvoid": 8182,
      "asses": 8183,
      "ires": 8184,
      "ultane": 8185,
      "Ġrain": 8186,
      "Ġhopeless": 8187,
      "Ġinterfe": 8188,
      "Ġfinishing": 8189,
      "Ġseriousness": 8190,
      "Ġexchan": 8191,
      "Ġmistaken": 8192,
      "Ġrejects": 8193,
      "Ġbitching": 8194,
      "ĠExercise": 8195,
      "identally": 8196,
      "Ġcultures": 8197,
      "Ġrelaxing": 8198,
      "Ġproportion": 8199,
      "someone": 8200,
      "playing": 8201,
      "Ġfooling": 8202,
      "Ġvoicemail": 8203,
      "Ġreassurance": 8204,
      "Ġaccused": 8205,
      "hearted": 8206,
      "block": 8207,
      "Ġtrauma": 8208,
      "Ġpolyamorous": 8209,
      "Ġcoworker": 8210,
      "Ġfarther": 8211,
      "Ġclimbing": 8212,
      "Ġflattering": 8213,
      "Ġhassle": 8214,
      "?),": 8215,
      "NA": 8216,
      "OLL": 8217,
      "bble": 8218,
      "Ġ\\": 8219,
      "rep": 8220,
      "once": 8221,
      "hable": 8222,
      "Ġbiz": 8223,
      "Ġfired": 8224,
      "itar": 8225,
      "erning": 8226,
      "Ġejac": 8227,
      "ĠSchool": 8228,
      "Ġupvotes": 8229,
      "ĠBon": 8230,
      "Ġoffspring": 8231,
      "Ġunp": 8232,
      "Ġunknown": 8233,
      "Ġplaced": 8234,
      "ĠPL": 8235,
      "Ġresume": 8236,
      "Ġgrasp": 8237,
      "Ġclever": 8238,
      "Ġdrank": 8239,
      "Ġserial": 8240,
      "jection": 8241,
      "ĠRemind": 8242,
      "ĠStand": 8243,
      "Ġapproaches": 8244,
      "Ġreacting": 8245,
      "Ġquicker": 8246,
      "Ġmothers": 8247,
      "Ġpulls": 8248,
      "Ġkiller": 8249,
      "Ġcultiv": 8250,
      "Ġbrothers": 8251,
      "ĠSexual": 8252,
      "without": 8253,
      "Ġpreventing": 8254,
      "Ġencounters": 8255,
      "Ġsavings": 8256,
      "Ġcandid": 8257,
      "Ġdwelling": 8258,
      "Ġpicnic": 8259,
      "Ġsandw": 8260,
      "Ġerection": 8261,
      "Ġlaptop": 8262,
      "Ġanticip": 8263,
      "Cupid": 8264,
      "hug": 8265,
      "say": 8266,
      "wood": 8267,
      "Ġsil": 8268,
      "Ġsouth": 8269,
      "Ġwo": 8270,
      "Ġwoke": 8271,
      "Ġmall": 8272,
      "Ġmart": 8273,
      "Ġfib": 8274,
      "almost": 8275,
      "Ġlip": 8276,
      "Ġmole": 8277,
      "hole": 8278,
      "Ġloses": 8279,
      "Ġconsu": 8280,
      "ĠMind": 8281,
      "Ġpreser": 8282,
      "ables": 8283,
      "Ġspar": 8284,
      "ĠLater": 8285,
      "Ġafterno": 8286,
      "Ġdeals": 8287,
      "version": 8288,
      "Ġconscience": 8289,
      "Ġchores": 8290,
      "ignificant": 8291,
      "sites": 8292,
      "ivor": 8293,
      "Ġmessaging": 8294,
      "Ġchap": 8295,
      "Ġprime": 8296,
      "Ġprize": 8297,
      "ordin": 8298,
      "Ġtrial": 8299,
      "Ġsimultane": 8300,
      "commun": 8301,
      "Ġgrows": 8302,
      "Ġmedia": 8303,
      "Ġmorally": 8304,
      "Ġnerves": 8305,
      "uesday": 8306,
      "Ġrecommended": 8307,
      "Ġwarn": 8308,
      "Ġabusing": 8309,
      "Ġpreferably": 8310,
      "Ġmuscles": 8311,
      "Ġsneak": 8312,
      "taking": 8313,
      "Ġboundary": 8314,
      "Ġstatistics": 8315,
      "Ġhormone": 8316,
      "atums": 8317,
      "Ġteenagers": 8318,
      "Ġairport": 8319,
      "ĠONLY": 8320,
      "Ġparagraphs": 8321,
      "Ġreconcile": 8322,
      "trying": 8323,
      "Ġviolated": 8324,
      "ĠUnderstand": 8325,
      "Also": 8326,
      "Ġcharacteristics": 8327,
      "Ġbutterf": 8328,
      "Ġowes": 8329,
      "Let": 8330,
      "Sh": 8331,
      "core": 8332,
      "den": 8333,
      "ka": 8334,
      "lst": 8335,
      "luck": 8336,
      "yles": 8337,
      "Ġwha": 8338,
      "Ġbillion": 8339,
      "ĠIve": 8340,
      "Ġfurn": 8341,
      "iture": 8342,
      "orough": 8343,
      "Ġsore": 8344,
      "Ġjun": 8345,
      "Ġabort": 8346,
      "ĠWed": 8347,
      "ĠBr": 8348,
      "Ġpersu": 8349,
      "Ġadapt": 8350,
      "Ġpersons": 8351,
      "Ġoverlook": 8352,
      "Ġwhilst": 8353,
      "Ġplate": 8354,
      "ĠGI": 8355,
      "Ġexpense": 8356,
      "ĠCha": 8357,
      "Ġbits": 8358,
      "Ġcoup": 8359,
      "Ġflight": 8360,
      "Ġsorta": 8361,
      "Ġokcupid": 8362,
      "Ġsociet": 8363,
      "Ġgeneric": 8364,
      "ublic": 8365,
      "Ġpickup": 8366,
      "Ġupsetting": 8367,
      "Ġcheaters": 8368,
      "Ġdamaging": 8369,
      "Ġlistened": 8370,
      "worth": 8371,
      "OUS": 8372,
      "Ġcomplains": 8373,
      "Ġsubjective": 8374,
      "Ġcatching": 8375,
      "Ġhugging": 8376,
      "Ġdistraction": 8377,
      "Ġinsults": 8378,
      "Ġintimidating": 8379,
      "Ġbriefly": 8380,
      "Ġpolyamory": 8381,
      "Ġbacon": 8382,
      "TMFA": 8383,
      "ĠPlenty": 8384,
      "ĠApolog": 8385,
      "Ġobnoxious": 8386,
      "Sorry": 8387,
      "ds": 8388,
      "fy": 8389,
      "iver": 8390,
      "la": 8391,
      "uition": 8392,
      "Ġborrow": 8393,
      "Ġcues": 8394,
      "itting": 8395,
      "Ġnurt": 8396,
      "Ġhaunt": 8397,
      "sely": 8398,
      "Ġdocument": 8399,
      "Ġstole": 8400,
      "Ġconstruct": 8401,
      "Ġwheel": 8402,
      "Ġseed": 8403,
      "female": 8404,
      "Ġprompt": 8405,
      "Ġwhores": 8406,
      "ula": 8407,
      "Ġadditional": 8408,
      "Ġuninterested": 8409,
      "ĠGiving": 8410,
      "ĠFortun": 8411,
      "likes": 8412,
      "quited": 8413,
      "Ġexposed": 8414,
      "ĠCON": 8415,
      "Ġleaning": 8416,
      "issue": 8417,
      "Ġconfuse": 8418,
      "Ġdefending": 8419,
      "Ġtrusts": 8420,
      "Ġshar": 8421,
      "Ġethic": 8422,
      "Ġsorted": 8423,
      "Ġlists": 8424,
      "Ġsocialize": 8425,
      "Ġpurcha": 8426,
      "Ġtendencies": 8427,
      "mature": 8428,
      "Ġsyndrome": 8429,
      "doing": 8430,
      "ĠOthers": 8431,
      "Ġcalcul": 8432,
      "Ġmuscle": 8433,
      "Ġfreaks": 8434,
      "Ġjerking": 8435,
      "Ġfeeding": 8436,
      "Ġconsequence": 8437,
      "Ġoccurs": 8438,
      "Ġcombined": 8439,
      "Ġroller": 8440,
      "Ġpeers": 8441,
      "Ġwebsites": 8442,
      "Ġgolden": 8443,
      "Ġshooting": 8444,
      "Ġdemonstrate": 8445,
      "Ġacquaintance": 8446,
      "ĠSimply": 8447,
      "ĠCongratulations": 8448,
      "Ġkinky": 8449,
      "Ġreluctant": 8450,
      "Ġinadequate": 8451,
      "ĠConsidering": 8452,
      "ĠAvoid": 8453,
      "Ġwebcam": 8454,
      "Ġstigma": 8455,
      "ĠInvite": 8456,
      "cas": 8457,
      "fers": 8458,
      "jud": 8459,
      "uri": 8460,
      "yr": 8461,
      "Ġwhip": 8462,
      "onent": 8463,
      "Ġdow": 8464,
      "oral": 8465,
      "Ġben": 8466,
      "owing": 8467,
      "Ġsores": 8468,
      "etween": 8469,
      "Ġneat": 8470,
      "odes": 8471,
      "Ġfriendzone": 8472,
      "urpri": 8473,
      "ĠDeal": 8474,
      "Ġagend": 8475,
      "Ġadvert": 8476,
      "Ġrut": 8477,
      "beit": 8478,
      "ago": 8479,
      "Ġdisconnect": 8480,
      "assed": 8481,
      "Ġraptor": 8482,
      "Ġseeming": 8483,
      "Ġreput": 8484,
      "?\",": 8485,
      "Ġindust": 8486,
      "Ġaccepts": 8487,
      "Ġrestri": 8488,
      "Ġpaint": 8489,
      "Ġmiscon": 8490,
      "ERE": 8491,
      "Ġreminding": 8492,
      "Ġstrip": 8493,
      "Ġ70": 8494,
      "Ġhyper": 8495,
      "ESS": 8496,
      "Ġobjectively": 8497,
      "Ġprotective": 8498,
      "Ġdegrees": 8499,
      "Ġdrawing": 8500,
      "Ġinsanely": 8501,
      "Ġsenses": 8502,
      "Ġsensible": 8503,
      "ĠIndeed": 8504,
      "Ġfilter": 8505,
      "Ġbugs": 8506,
      "Ġwitty": 8507,
      "Ġspelling": 8508,
      "ĠCollege": 8509,
      "Ġrelieved": 8510,
      "ĠRealize": 8511,
      "Ġskype": 8512,
      "Ġordinary": 8513,
      "Ġoptimistic": 8514,
      "Ġratio": 8515,
      "Ġinherently": 8516,
      "Ġsubstance": 8517,
      "Ġscheme": 8518,
      "Ġbizar": 8519,
      "Ġfurniture": 8520,
      "!*": 8521,
      "!),": 8522,
      "BLE": 8523,
      "Raptor": 8524,
      "Your": 8525,
      "cis": 8526,
      "ius": 8527,
      "woman": 8528,
      "ye": 8529,
      "having": 8530,
      "Ġfishing": 8531,
      "Ġfidelity": 8532,
      "Ġoil": 8533,
      "Ġheck": 8534,
      "Ġheter": 8535,
      "rove": 8536,
      "ĠTex": 8537,
      "Ġstarter": 8538,
      "ĠSky": 8539,
      "ĠYears": 8540,
      "aunt": 8541,
      "ounding": 8542,
      "Ġfaces": 8543,
      "Ġdile": 8544,
      "Ġsexes": 8545,
      "oms": 8546,
      "Ġoverthinking": 8547,
      "social": 8548,
      "intell": 8549,
      "ĠCare": 8550,
      "ĠCertain": 8551,
      "ĠLA": 8552,
      "umn": 8553,
      "Ġdownvoting": 8554,
      "Ġblank": 8555,
      "ĠInner": 8556,
      "Ġsmokes": 8557,
      "Ġstrateg": 8558,
      "Ġsluts": 8559,
      "ĠStra": 8560,
      "Ġconcerning": 8561,
      "Ġmisle": 8562,
      "Ġpushy": 8563,
      "Ġrisky": 8564,
      "Ġamazingly": 8565,
      "Ġgrades": 8566,
      "Ġattempted": 8567,
      "Ġbiased": 8568,
      "Ġforgiven": 8569,
      "Ġcreates": 8570,
      "Ġversus": 8571,
      "Ġroughly": 8572,
      "Ġinsightful": 8573,
      "Ġdistracted": 8574,
      "ĠWHAT": 8575,
      "Ġseverely": 8576,
      "Ġignorance": 8577,
      "Ġspoiled": 8578,
      "Ġhomosexual": 8579,
      "control": 8580,
      "Ġbrutal": 8581,
      "Ġunexpected": 8582,
      "Ġcigaret": 8583,
      "'?": 8584,
      "IP": 8585,
      "Some": 8586,
      "].": 8587,
      "car": 8588,
      "main": 8589,
      "yo": 8590,
      "oul": 8591,
      "Ġwives": 8592,
      "Ġyoure": 8593,
      "erk": 8594,
      "Ġni": 8595,
      "Ġthorough": 8596,
      "Ġstea": 8597,
      "adays": 8598,
      "Ġoutdo": 8599,
      "Ġsuffe": 8600,
      "Ġguitar": 8601,
      "ĠBreaking": 8602,
      "ĠShes": 8603,
      "Ġoffend": 8604,
      "ĠEar": 8605,
      "isters": 8606,
      "ĠLess": 8607,
      "Ġ29": 8608,
      "Ġfunctional": 8609,
      "Ġsmack": 8610,
      "Ġbrown": 8611,
      "Ġstruck": 8612,
      "umping": 8613,
      "Ġcontacted": 8614,
      "Ġsubstitute": 8615,
      "Ġcommenting": 8616,
      "Ġadds": 8617,
      "Ġfrank": 8618,
      "Ġsucking": 8619,
      "mmm": 8620,
      "Ġhello": 8621,
      "cohol": 8622,
      "Ġreturning": 8623,
      "Ġlaws": 8624,
      "Ġwished": 8625,
      "Ġpurposes": 8626,
      "Ġobligations": 8627,
      "child": 8628,
      "Ġbasement": 8629,
      "Ġcompetitive": 8630,
      "hard": 8631,
      "Ġdisgusted": 8632,
      "Ġclicked": 8633,
      "Ġamongst": 8634,
      "Ġdiffer": 8635,
      "Ġmedications": 8636,
      "natural": 8637,
      "Ġmillions": 8638,
      "Ġnarrow": 8639,
      "Ġsimultaneously": 8640,
      "UM": 8641,
      "YI": 8642,
      "YY": 8643,
      "case": 8644,
      "mare": 8645,
      "va": 8646,
      "Ġfif": 8647,
      "Ġnarc": 8648,
      "atures": 8649,
      "Ġsold": 8650,
      "Ġshell": 8651,
      "ĠTw": 8652,
      "Ġmere": 8653,
      "Ġstem": 8654,
      "Ġreliable": 8655,
      "Ġselling": 8656,
      "ĠHar": 8657,
      "ĠHence": 8658,
      "ĠBro": 8659,
      "Ġsample": 8660,
      "ĠMuch": 8661,
      "Ġfacing": 8662,
      "Ġprepar": 8663,
      "ullshit": 8664,
      "Ġfewer": 8665,
      "Ġconsol": 8666,
      "Ġ32": 8667,
      "Ġreconsider": 8668,
      "Ġsigh": 8669,
      "ĠSomehow": 8670,
      "Ġtermin": 8671,
      "Ġholy": 8672,
      "Ġclosely": 8673,
      "iction": 8674,
      "ensity": 8675,
      "Ġfruit": 8676,
      "ording": 8677,
      "Ġheartbroken": 8678,
      "Ġflirted": 8679,
      "exp": 8680,
      "cribe": 8681,
      "Ġsurvi": 8682,
      "Ġfollows": 8683,
      "Ġcounting": 8684,
      "matically": 8685,
      "ĠThus": 8686,
      "Ġforeign": 8687,
      "Ġforemost": 8688,
      "Ġmeetings": 8689,
      "Ġthrows": 8690,
      "Ġstrikes": 8691,
      "Ġgaining": 8692,
      "Ġbitterness": 8693,
      "Ġcapt": 8694,
      "Ġfascin": 8695,
      "UCH": 8696,
      "Ġrequests": 8697,
      "Ġanalysis": 8698,
      "Ġsuspicion": 8699,
      "Ġdynamics": 8700,
      "Ġfeminine": 8701,
      "personal": 8702,
      "ALK": 8703,
      "ĠJoin": 8704,
      "ximity": 8705,
      "ikiped": 8706,
      "Ġspontaneous": 8707,
      "Ġobservation": 8708,
      "ournal": 8709,
      "Ġswimming": 8710,
      "ĠJewish": 8711,
      "Ġcognitive": 8712,
      "Ġmanifest": 8713,
      "Ġafternoon": 8714,
      "ikipedia": 8715,
      "bled": 8716,
      "cue": 8717,
      "inction": 8718,
      "Ġbomb": 8719,
      "ĠIQ": 8720,
      "Ġfright": 8721,
      "Ġgall": 8722,
      "Ġpapers": 8723,
      "start": 8724,
      "hill": 8725,
      "Ġheals": 8726,
      "Ġbelly": 8727,
      "athy": 8728,
      "Ġinvent": 8729,
      "Ġmelt": 8730,
      "ĠACT": 8731,
      "Ġupbringing": 8732,
      "Ġlos": 8733,
      "Ġconvi": 8734,
      "Ġexit": 8735,
      "Ġproduce": 8736,
      "Ġanyhow": 8737,
      "Ġdefect": 8738,
      "ĠBJ": 8739,
      "ĠBar": 8740,
      "...?": 8741,
      "ĠMonday": 8742,
      "ĠOM": 8743,
      "ĠOdd": 8744,
      "Ġtap": 8745,
      "Ġpreced": 8746,
      "erior": 8747,
      "Ġamusing": 8748,
      "ĠPhysical": 8749,
      "istent": 8750,
      "Ġrealistically": 8751,
      "Ġmarital": 8752,
      "Ġimmen": 8753,
      "ĠAltern": 8754,
      "Ġmetap": 8755,
      "Ġcourts": 8756,
      "ĠRec": 8757,
      "Ġnightmare": 8758,
      "Ġinsists": 8759,
      "Ġaccuse": 8760,
      "Ġdrastic": 8761,
      "exc": 8762,
      "Ġhorrif": 8763,
      "Ġswings": 8764,
      "Ġhumanity": 8765,
      "Ġseparately": 8766,
      "Ġbeneficial": 8767,
      "Ġprofessor": 8768,
      "ONG": 8769,
      "Ġwiser": 8770,
      "Ġvalidate": 8771,
      "Ġrecognized": 8772,
      "OOD": 8773,
      "ĠFucking": 8774,
      "Ġcrossing": 8775,
      "Ġaddressing": 8776,
      "Ġsteer": 8777,
      "Ġslutty": 8778,
      "Ġcompete": 8779,
      "stitutes": 8780,
      "Ġfashioned": 8781,
      "ĠQuite": 8782,
      "Ġescap": 8783,
      "ographic": 8784,
      "Ġsurrounded": 8785,
      "Ġabsor": 8786,
      "Ġscientific": 8787,
      "Ġtalent": 8788,
      "Ġarise": 8789,
      "Ġemphasize": 8790,
      "Ġattributes": 8791,
      "Ġlegitimately": 8792,
      "Ġagenda": 8793,
      "DS": 8794,
      "cil": 8795,
      "lishing": 8796,
      "sigh": 8797,
      "Ġ).": 8798,
      "Ġwore": 8799,
      "Ġwrap": 8800,
      "reet": 8801,
      "Ġyo": 8802,
      "ĠIde": 8803,
      "Ġpant": 8804,
      "itals": 8805,
      "Ġnine": 8806,
      "vern": 8807,
      "Ġweap": 8808,
      "ĠSu": 8809,
      "ĠSw": 8810,
      "ĠAcc": 8811,
      "Ġaloof": 8812,
      "Ġproves": 8813,
      "Ġdegr": 8814,
      "Ġsafer": 8815,
      "ulous": 8816,
      "Ġriding": 8817,
      "ĠEr": 8818,
      "umble": 8819,
      "Ġvows": 8820,
      "Ġsmother": 8821,
      "Ġviable": 8822,
      "Ġslide": 8823,
      "Ġsociopath": 8824,
      "dem": 8825,
      "Ġdistinction": 8826,
      "Ġgeneralization": 8827,
      "Ġbarg": 8828,
      "Ġjoined": 8829,
      "Ġ=/": 8830,
      "Ġprovides": 8831,
      "Ġtherapists": 8832,
      "avid": 8833,
      "Ġreturned": 8834,
      "Ġwishing": 8835,
      "ĠIMHO": 8836,
      "Ġdenied": 8837,
      "Ġcreatures": 8838,
      "Ġcocky": 8839,
      "hicago": 8840,
      "Ġpackage": 8841,
      "Ġtactic": 8842,
      "Ġthrill": 8843,
      "Ġhypocrite": 8844,
      "Ġauthor": 8845,
      "RIEND": 8846,
      "protected": 8847,
      "Ġmasculine": 8848,
      "Ġlouder": 8849,
      "Ġoutweigh": 8850,
      "Ġdownt": 8851,
      "11": 8852,
      "St": 8853,
      "bell": 8854,
      "cool": 8855,
      "ccess": 8856,
      "fin": 8857,
      "gam": 8858,
      "lin": 8859,
      "lbs": 8860,
      "mine": 8861,
      "oia": 8862,
      "Ġthir": 8863,
      "Ġtune": 8864,
      "Ġwaking": 8865,
      "Ġyr": 8866,
      "Ġbeach": 8867,
      "Ġeth": 8868,
      "ĠTuesday": 8869,
      "Ġsomeplace": 8870,
      "rape": 8871,
      "raptor": 8872,
      "tery": 8873,
      "Ġsuited": 8874,
      "Ġpros": 8875,
      "ĠHo": 8876,
      "ĠBOTH": 8877,
      "peat": 8878,
      "ĠMakes": 8879,
      "ĠOld": 8880,
      "gthen": 8881,
      "Ġbacked": 8882,
      "Ġarri": 8883,
      "ĠPost": 8884,
      "Ġbliss": 8885,
      "Ġimbal": 8886,
      "ĠUP": 8887,
      "Ġinvitation": 8888,
      "Ġentering": 8889,
      "orders": 8890,
      "exactly": 8891,
      "Ġviewed": 8892,
      "Ġdirected": 8893,
      "Ġbarrier": 8894,
      "Ġbrave": 8895,
      "Ġforgave": 8896,
      "Ġ95": 8897,
      "headed": 8898,
      "Ġpreferred": 8899,
      "iterate": 8900,
      "Ġcompromises": 8901,
      "Ġrecognizing": 8902,
      "They": 8903,
      "ĠShort": 8904,
      "Ġtrend": 8905,
      "Ġlinks": 8906,
      "Ġobsession": 8907,
      "erican": 8908,
      "Ġgrandparents": 8909,
      "?!?!": 8910,
      "Ġattacks": 8911,
      "Ġattacking": 8912,
      "Ġbatshit": 8913,
      "Ġarticles": 8914,
      "Ġbleed": 8915,
      "Ġfulfilled": 8916,
      "Ġmildly": 8917,
      "Ġproposal": 8918,
      "Ġduty": 8919,
      "Ġinterfere": 8920,
      "Ġbizarre": 8921,
      "ELY": 8922,
      "Wow": 8923,
      "],": 8924,
      "af": 8925,
      "ghest": 8926,
      "oon": 8927,
      "porate": 8928,
      "whether": 8929,
      "Ġwinner": 8930,
      "Ġyrs": 8931,
      "Ġtooth": 8932,
      "Ġfought": 8933,
      "Ġdor": 8934,
      "Ġgroom": 8935,
      "iddle": 8936,
      "eeee": 8937,
      "eeze": 8938,
      "Ġsomeones": 8939,
      "Ġabsol": 8940,
      "ille": 8941,
      "rained": 8942,
      "essim": 8943,
      "aine": 8944,
      "Ġ*\"": 8945,
      "unning": 8946,
      "ĠMAN": 8947,
      "ĠDNA": 8948,
      "ĠDTMFA": 8949,
      "ĠNormally": 8950,
      "ĠFA": 8951,
      "ĠFYI": 8952,
      "Ġcheaper": 8953,
      "friendly": 8954,
      "ĠJUST": 8955,
      "perhaps": 8956,
      "Ġnicest": 8957,
      "ubs": 8958,
      "mostly": 8959,
      "Ġchain": 8960,
      "Ġcarried": 8961,
      "ĠThursday": 8962,
      "Ġassumes": 8963,
      "Ġhookups": 8964,
      "moral": 8965,
      "Ġkeys": 8966,
      "Ġqualified": 8967,
      "Ġcomplaint": 8968,
      "Ġcomplaints": 8969,
      "Ġcharges": 8970,
      "Ġvideos": 8971,
      "Ġpursued": 8972,
      "Ġundes": 8973,
      "Ġdragged": 8974,
      "Ġprogramming": 8975,
      "Ġencountered": 8976,
      "Ġminority": 8977,
      "llywood": 8978,
      "Ġhesitate": 8979,
      "Ġrestaurants": 8980,
      "ĠCompletely": 8981,
      "Ġthrilled": 8982,
      "Ġexamine": 8983,
      "ĠAwesome": 8984,
      "urable": 8985,
      "Ġhypocritical": 8986,
      "Ġlosers": 8987,
      ",'": 8988,
      "25": 8989,
      "Gir": 8990,
      "SH": 8991,
      "SS": 8992,
      "fess": 8993,
      "ij": 8994,
      "kiss": 8995,
      "vag": 8996,
      "Ġtask": 8997,
      "heless": 8998,
      "Ġsisters": 8999,
      "Ġwrest": 9000,
      "reating": 9001,
      "Ġflex": 9002,
      "Ġgigg": 9003,
      "step": 9004,
      "stically": 9005,
      "erb": 9006,
      "ativity": 9007,
      "Ġhairc": 9008,
      "oting": 9009,
      "owed": 9010,
      "Ġsoap": 9011,
      "Ġwithholding": 9012,
      "Ġdome": 9013,
      "ĠToday": 9014,
      "Ġasp": 9015,
      "Ġproximity": 9016,
      "olo": 9017,
      "Ġtape": 9018,
      "Ġrise": 9019,
      "Ġhappiest": 9020,
      "Ġmanic": 9021,
      "Ġeverytime": 9022,
      "ĠPat": 9023,
      "adem": 9024,
      "such": 9025,
      "ceptions": 9026,
      "Ġinches": 9027,
      "Ġinterrupt": 9028,
      "Ġconversational": 9029,
      "Ġchair": 9030,
      "Ġflirts": 9031,
      "Ġprofound": 9032,
      "Ġcommitments": 9033,
      "Ġspecifics": 9034,
      "Ġregretted": 9035,
      "Ġpleasing": 9036,
      "ĠWhoa": 9037,
      "Ġsalary": 9038,
      "Ġfrequency": 9039,
      "friendship": 9040,
      "Ġcamping": 9041,
      "Ġclaiming": 9042,
      "Ġflawed": 9043,
      "Ġsacrifices": 9044,
      "Ġaccomplished": 9045,
      "marriage": 9046,
      "Ġlesbians": 9047,
      "ĠWHY": 9048,
      "Ġdelay": 9049,
      "Ġcousins": 9050,
      "Ġtools": 9051,
      "Ġneglected": 9052,
      "Ġshrug": 9053,
      "Ġskept": 9054,
      "Ġdedicated": 9055,
      "ĠCraigslist": 9056,
      "Ġdialog": 9057,
      "nesday": 9058,
      "Ġmisinterpret": 9059,
      "ĠFortunately": 9060,
      "Ġindustry": 9061,
      "ĠOMG": 9062,
      "either": 9063,
      "game": 9064,
      "Ġtant": 9065,
      "Ġaunt": 9066,
      "Ġshat": 9067,
      "Ġwoo": 9068,
      "Ġwired": 9069,
      "inge": 9070,
      "ĠImp": 9071,
      "Ġgard": 9072,
      "state": 9073,
      "met": 9074,
      "ĠTher": 9075,
      "Ġsteak": 9076,
      "Ġabsence": 9077,
      "ica": 9078,
      "ĠAge": 9079,
      "ĠAww": 9080,
      "isms": 9081,
      "Ġknife": 9082,
      "Ġalb": 9083,
      "Ġprocre": 9084,
      "Ġfriendzoned": 9085,
      "urder": 9086,
      "Ġpoet": 9087,
      "ĠMac": 9088,
      "ĠDifferent": 9089,
      "Ġdies": 9090,
      "Ġprecious": 9091,
      "Ġrot": 9092,
      "Ġamb": 9093,
      "quently": 9094,
      "ĠPri": 9095,
      "Ġsits": 9096,
      "ĠJe": 9097,
      "Ġrose": 9098,
      "Ġinconsider": 9099,
      "psy": 9100,
      "ĠStar": 9101,
      "angle": 9102,
      "Ġwording": 9103,
      "Ġcertainty": 9104,
      "Ġpaycheck": 9105,
      "Ġbooty": 9106,
      "Ġlacks": 9107,
      "Ġnamed": 9108,
      "Ġedited": 9109,
      "Ġbuilds": 9110,
      "Ġpracticing": 9111,
      "Ġpromising": 9112,
      "Ġhandsome": 9113,
      "Ġcomputers": 9114,
      "Ġsplitting": 9115,
      "Ġdestroying": 9116,
[...]
